[CLS]
[PAD]
[SEP]
[UNK]
[MASK]
[HTAG]
[USR]
[CURR]
[EMOJI]
[URL]
[TIME]
[DATE]
[NUM]
!
"
#
$
%
&
'
(
)
*
+
,
-
.
/
0
1
2
3
4
5
6
7
8
9
:
;
<
=
>
?
@
[
\
]
^
_
a
b
c
d
e
f
g
h
i
j
k
l
m
n
o
p
q
r
s
t
u
v
w
x
y
z
{
|
}
~
¡
¢
£
¤
¥
¦
§
©
ª
¬
®
°
±
²
³
µ
¶
¹
º
¼
½
¾
¿
×
ß
æ
ð
÷
ø
þ
đ
ħ
ı
ĸ
ŀ
ł
ŋ
œ
ŧ
ſ
ƴ
ƿ
ǝ
ɓ
ɗ
ə
ɛ
ɣ
ʼ
™
↔
⏰
▪
▶
☠
♠
♣
♥
♦
⚡
✅
✔
❤
➡
⬇
⭐
🎁
🏆
🏻
👀
👇
👉
👍
💥
💯
💰
💵
💶
💸
📈
📉
📋
📢
🔄
🔥
🗺
😁
😂
😉
😍
😎
😵
🚀
🚨
🤑
🤔
##a
##m
##u
##t
##o
##0
##6
##8
##9
##3
##g
##4
##7
##1
##s
##w
##e
##l
##v
##d
##r
##h
##f
##i
##y
##n
##j
##z
##c
##p
##k
##2
##5
##b
##x
##q
##ı
##ø
##¢
##²
##ß
##đ
##ʼ
##ł
##ə
##œ
##æ
##£
##³
##°
##¦
##ð
##º
##×
##ſ
##þ
##ǝ
##ta
##tag
htag
##in
##ur
##urr
curr
##it
##co
##coin
bit
bitcoin
##er
##en
##um
##to
us
##ry
num
##ryp
##rypto
crypto
##an
th
##ing
##enc
##es
##on
##ency
##or
##curr
##currency
cryptocurrency
##ar
##ch
##th
##ll
in
to
##at
the
##et
##as
##ck
##al
usr
##lo
##ed
an
##ere
##ro
##00
##ce
##is
##ent
usd
##re
##ain
eth
##ra
co
##ereum
ethereum
##ou
and
blo
##chain
block
##ion
is
blockchain
##ay
##ri
for
##ew
on
##us
##ow
##le
of
##ve
##ig
re
##ir
##rad
##me
##ic
##ot
##ge
##te
##est
per
##un
al
bu
##ec
##ol
##os
##ter
be
##ill
##mo
pro
##rl
##ite
url
##cent
##ash
trad
##ver
##ly
pri
##rp
ch
com
percent
coin
xrp
##ts
wh
##ex
##ark
##ance
you
##ews
##ken
##ad
ex
##ji
emo
emoji
##our
##ap
##ith
at
##ers
##id
##ut
##ia
##tcoin
##tc
se
##arket
##itecoin
with
litecoin
do
we
tr
##inance
##ore
price
te
altcoin
buy
##one
altcoins
##ld
##am
##ess
it
##ment
##ard
##ak
20
##oo
##ate
##all
ti
li
token
##il
##ree
##ation
sta
market
inv
binance
##ity
this
##pp
de
##ange
##ct
as
free
min
trading
up
sh
ico
your
so
##rop
now
##0000
will
more
wor
not
##ust
##igh
##ird
##ul
new
##ank
##eo
##news
201
##ob
are
time
get
##irdrop
con
10
cash
##ast
en
##el
##oney
##ive
exch
airdrop
fin
un
##st
invest
can
su
sto
##om
sp
st
##od
or
ha
by
##rt
that
##day
##tal
##art
sell
##im
##if
##ys
##arn
##are
##ect
news
##ink
le
##ase
me
##and
##ort
all
##ign
tw
##ab
##old
##rom
money
ad
##oun
exchange
tron
##etw
##ther
##ial
##end
##trad
##bit
pl
##oin
##ale
##ip
btc
##up
ste
##sta
am
##ke
from
tech
ab
##iz
##tech
prof
ne
##ure
go
mon
##ist
##20
have
##for
##000
ac
##ans
##llar
##tor
##se
da
##out
##qu
11
##und
##ang
##mp
##gy
dig
##ork
##itter
ar
pay
##ber
proj
profit
##ital
my
fo
last
##ook
##ack
card
via
##ag
cl
sa
##iv
##ine
##gh
start
out
fa
##ano
has
##ub
##ie
##ake
##trading
one
just
##pl
if
ever
join
##op
twitter
ind
he
##ies
##illion
24
day
##min
mo
##usd
earn
what
##sh
here
##no
op
##ral
##ost
##form
fintech
stock
2019
15
goo
##ant
stellar
##ight
##iness
##fer
au
trade
high
##ue
##usiness
##app
##ong
12
##ish
current
our
##ass
##ib
sign
forex
eos
business
every
doge
##tion
how
about
inf
mining
no
##ear
##row
pa
##ump
cardano
##llow
##ction
dogecoin
##ty
##allet
##per
##ek
over
like
##ud
qu
##ick
tokens
##ence
##tre
hour
ag
project
vol
bank
##io
##gra
sec
digital
##con
##ero
##own
world
follow
##ire
##logy
##base
##ally
app
investment
##tom
dec
gold
man
comp
ver
job
##ile
str
##ning
cont
cap
##vi
##ated
read
inter
fir
sc
fut
##unt
but
la
##fe
there
some
today
##way
14
##pr
##com
pr
win
##etwork
##market
##uc
live
care
cryptonews
link
13
big
##ould
res
lo
eur
btcusd
gre
##ited
##ep
##ton
worth
##etwe
top
sm
##age
##ac
##bp
##ach
00
##tan
##bitcoin
25
che
fe
cryptotrading
##ina
part
hir
see
##ume
jobs
##alys
##ff
##ven
##nology
##atform
bull
##ets
##ix
##token
hiring
##ble
##unch
##ily
its
##ph
##der
##ments
bt
100
make
info
careers
volume
18
tokensale
##cial
19
##ide
ai
##ple
supp
wallet
boun
reg
##ame
dash
16
##alysis
##ough
##als
week
##ces
##fin
trans
inr
coinbase
17
real
good
##de
io
neo
ether
first
##cess
bet
look
##ting
##btc
10000
##da
down
any
monero
currency
upd
gbp
##ace
low
23
30
acco
##19
##mes
##ized
insta
check
best
##ous
off
year
dis
##velo
##ings
investing
only
network
platform
##entral
give
ph
##av
hod
tether
##tosh
##10
##now
22
##ds
nex
##ene
##ical
develo
av
af
was
##mer
##unity
##atch
##ma
##ich
when
lat
val
they
coins
bre
great
fund
billion
inc
##estor
clo
##ft
utc
united
art
startup
hodl
##go
##pay
ma
ke
##ual
data
##low
bounty
##az
ser
work
back
21
##tem
chain
##ise
using
##ution
pos
why
bitsta
future
##ert
daily
rob
##ens
bitstamp
rank
##ipp
##eople
##tra
list
thank
use
bot
cr
ass
pol
people
pre
million
sw
##urity
launch
who
want
##gram
##anges
bas
##ays
##main
pair
analysis
##trex
##line
bittrex
investor
##finex
know
##ice
update
times
##cash
##iss
need
next
##arg
comm
##come
##ps
##mining
gu
##50
may
their
27
##crypto
##ving
##ific
add
bitfinex
##vel
into
##away
##ound
##able
##ger
than
##of
rep
##bs
satosh
28
26
##book
finance
technology
01
50
po
bo
support
##ics
been
long
##lob
cy
##em
##ull
account
stat
29
arb
most
vir
br
ly
##bt
hit
would
fri
cann
break
going
bon
vis
##ian
red
etc
##sell
after
smart
##etween
between
suc
cre
##ne
##uld
##ures
eas
giveaway
mak
##ose
rat
decentral
##money
##so
very
profits
airdrops
could
month
were
ins
gen
autom
##urn
##pt
##ond
##action
bitcoinnews
exchanges
##any
##wn
buysell
cons
ro
##ters
gam
##bl
think
##lobal
##ition
##ales
projec
learn
##ield
again
india
change
##ita
success
tra
##fore
bl
##mex
below
##ower
team
bonus
ieo
##thing
exp
05
priv
dapp
happ
##change
35
latest
finan
date
techn
##ress
still
way
##cl
31
##ind
##ought
##ese
imp
##30
##erm
interest
thanks
##ico
value
##dom
before
##uss
transaction
uk
##ystem
mar
stocks
ripp
set
ok
org
##eneur
##olution
##verage
##round
##alth
##tr
los
act
##ail
##ca
play
click
##view
days
tri
##preneur
payments
##tail
ranked
prices
hel
alts
face
technical
ny
##nt
##ium
##uch
wa
rt
##land
##ci
2018
markets
ris
##pos
financial
##anging
##des
##11
hold
##bers
##pa
02
##graph
##bra
48
china
develop
##tim
other
##net
ed
tele
36
##ason
##lease
class
global
bear
##cap
##ks
even
cn
##anning
entre
##ult
amaz
##ware
satoshi
bullish
##ards
id
##orts
##edic
entrepreneur
hard
32
cor
##ms
acce
##uck
##be
watch
bitmex
retwe
where
##99
##cr
take
des
states
##option
##exchange
strate
which
04
yield
03
trend
##la
##ugh
his
should
around
char
mins
own
##ations
##ful
##ator
##80
while
##iver
hu
robot
##ility
def
ripple
##40
sur
crow
cas
come
##conom
let
##link
coming
help
##read
short
06
ap
sv
##ome
33
el
usa
##gin
power
iota
##bo
mad
ca
##ann
ret
fr
##ury
##25
regul
rew
##les
telegram
facebook
er
newy
right
zcash
retweet
ops
ranging
37
##ino
xbt
game
grow
##000000
p2
easy
newyork
yielding
signal
san
pump
gl
libra
##quid
##desk
07
ra
##sa
spanning
trader
iot
refer
many
##15
60
ann
45
##tell
##90
social
##utes
open
##ush
coindesk
report
bought
##ubl
08
soon
then
##60
jun
based
##ream
community
btce
##ants
dollar
sou
fauc
sale
mer
mod
does
projectcoin
sk
friend
##18
liquid
run
ta
gain
##ues
75
##cor
hash
##gg
decentralized
targ
##ild
09
ev
classic
##70
##son
cri
hy
##roup
miss
sold
minutes
38
1000
king
online
please
44
level
34
keep
42
##cts
nem
investors
visit
##aire
average
##uters
find
##ating
cryptos
chainlink
##mber
##ative
##mt
also
compl
##ary
##ities
vid
##tellig
##ible
system
company
redd
partic
love
lead
##yte
buying
ant
incre
##use
try
pm
##cur
##que
security
predic
##icial
40
##trader
econom
got
arbit
exper
##eet
##atic
##telligence
##ai
##aim
show
arbitra
share
them
publ
bitcoinmining
##ope
##ss
##24
ve
##33
##ved
says
##ates
##ices
end
##other
##vice
ratio
##88
reuters
##65
##tx
##cker
med
fun
39
another
video
##17
##ondon
sim
##berg
fl
##aster
##ker
##ibyte
domain
55
200
##man
post
##bes
webs
artific
##tle
too
65
digibyte
##coins
##col
gener
##edit
##ders
years
users
et
##vid
sin
##rough
##technology
eng
everyone
strategy
##pri
##merce
##14
##ips
99
move
much
alert
particip
##abis
##istan
wait
im
forbes
call
payment
aug
##mot
##med
##ux
##ention
cryptocurrencynews
##ner
looking
##ecurity
##sp
cannabis
full
group
43
##ah
85
hours
south
##16
##12
moon
##edger
lot
london
cloud
fi
par
faucet
##py
##intelligence
announ
claim
dire
cam
casino
chart
##data
58
##raw
##lock
bel
sat
developer
well
##ced
sy
##aves
did
test
sales
##cj
##13
blockchaintechnology
contin
##wallet
57
##tocol
##ves
cybers
##bd
##ins
##ister
don
website
bro
enter
ceo
##fl
futures
trust
##ana
cle
target
ear
these
ready
avcj
shar
47
##45
traders
##lif
tal
##back
ide
##king
verge
##pro
address
bec
cybersecurity
##bitco
##bu
##inary
59
kingdom
##reet
100000
ele
##comm
##bc
selling
##ube
rece
yout
79
##miner
om
private
adv
currently
##bank
opp
tokenized
##ents
cra
82
since
##red
buysellbitco
fiat
cryp
gra
##vern
scam
##vices
capital
automatic
code
pe
offer
##ng
banking
waves
##commerce
ws
##ern
really
56
complet
banks
49
nas
##2019
tok
mob
##card
##acy
paid
##ode
##nd
##ik
made
##alert
strong
##ze
sing
fre
500
##fund
life
##ners
##place
through
yours
stop
##ieve
##yle
govern
vs
ent
tweet
95
##vg
##77
46
amazing
dif
##sm
##tory
better
##zos
drop
transactions
ecommerce
##pet
##ustral
icon
never
pass
##cri
##35
##lly
aw
binary
chance
##ussia
sol
rel
##ru
##ij
bloom
##ize
tezos
gmt
##pe
defi
wsj
order
goog
##85
##mor
push
##pping
##ove
94
##tw
coll
##22
64
bc
vi
##tain
leg
indust
##encies
bloomberg
liquidation
##gr
oc
##quity
say
under
##ious
main
##act
instant
perpet
fx
xvg
2017
hal
##apan
89
##times
giv
above
light
##75
cbd
pres
trades
retail
##ause
expl
##tand
perpetual
dri
78
opport
74
register
p2ps
because
##mit
buysellbitcoin
##dd
##the
86
cus
##cover
##price
store
prod
pot
protocol
tak
found
##daq
##jor
##enn
vent
payp
##arding
52
contra
pho
btch
rev
##ational
erc
##block
76
nasdaq
wall
cannot
bigdata
53
##ines
##eric
loss
ko
soft
73
asset
major
##ille
##we
friends
mult
youtube
63
sil
84
max
##curex
83
service
##ions
vircurex
##ood
trump
mt
net
##iam
few
term
nytimes
att
sl
##wor
88
##ization
##ied
##aly
secure
fast
##ric
del
##elf
steem
google
67
total
resistan
87
return
mobile
##arm
int
72
marketing
66
##tele
##orea
rewards
fall
##kt
##ential
b2
##ique
80
68
##cks
ledger
crowd
reach
62
happy
sep
54
central
port
93
##tos
##ience
referral
sports
##edge
##ustralia
signals
ftx
69
enj
##telegraph
2015
ir
92
##usic
##uel
huge
cointelegraph
96
2020
77
bra
##oni
##ignals
avail
##ready
key
hack
##ross
dur
##ising
##inv
manag
cnn
pur
omg
##au
pool
em
two
already
being
services
funding
mag
car
spec
antminer
okex
pat
moment
master
miner
##af
##annel
solution
##po
ob
bearish
ku
poss
mine
jo
automated
##iju
freetoken
##ased
98
send
##analysis
##uly
##ted
star
##bot
##ney
build
##ijuana
##oom
health
activ
quant
moving
51
##anta
available
##rica
wealth
bitmain
engine
etf
##ashing
marijuana
law
coinmarket
accept
##era
bar
mass
count
idea
unique
97
##nov
##vers
##he
ener
assets
##itive
industry
sle
conf
won
past
poin
kra
official
without
ask
prediction
lux
begin
##its
adoption
##tern
privacy
##gn
##earch
had
##iq
##load
##66
##ote
##00000
analy
##oniex
ms
head
##eso
##ons
nice
channel
##ony
2014
poloniex
41
compet
##ular
arbitrage
option
contest
##apore
##log
risk
300
##ser
png
##network
##cket
credit
weekly
happen
web
rich
##contra
makemoney
##draw
investments
erc20
interesting
##less
ey
maker
##aper
kraken
bal
##do
paypal
quark
##llo
gh
##rent
##ries
innov
##95
hot
lit
white
bitcoinprice
##kc
sent
making
detail
virt
##enta
artic
ban
strat
icos
stay
program
businesses
attention
##21
tax
##pto
mal
##ha
dist
##oy
##gor
fra
depos
##ier
elect
##ivation
opportunity
##formation
crowdfund
##ift
supply
##gon
differ
hand
listed
gr
##hub
funds
##ago
anyone
2013
##oughts
those
1000000
super
safe
sleep
become
sun
vechain
believe
##paign
coinmarketcap
proof
sky
months
tt
freebitcoin
##ging
##ient
provid
hey
sharding
custom
true
looks
pop
sure
getting
##ways
revolution
##torrent
wr
cour
yet
##br
engineer
##23
luxury
artificial
accep
##lot
##pia
##ider
##life
bri
zill
sub
##64
against
kucoin
bittorrent
near
##uk
##cer
luck
spe
##nk
81
started
whale
bat
mor
sour
virtual
##esta
russia
god
det
early
government
fox
sen
following
sch
each
currencies
70
always
##air
##tsy
corre
close
tre
##ike
##ho
ago
tas
##icago
washing
rise
campaign
research
##84
crowdfunding
black
##uct
##obit
washington
##cord
mat
launches
increase
lightning
person
expect
##cal
##ification
resistance
##par
xcard
inst
entry
##estyle
positive
dev
technicalanalysis
octo
ren
##get
chicago
internet
jul
##twitter
setup
japan
qkc
90
used
##gest
stable
##63
##payments
recent
##fo
##eason
##ward
jav
fees
algor
col
space
py
##ship
millionaire
infl
guys
##94
pet
cal
design
##ls
##ors
##87
energy
feel
ift
article
distri
october
home
digitalcurrency
mark
media
zero
##ats
arg
##27
clear
fed
biz
##67
germ
##ending
development
##signals
nano
incl
potential
##til
poly
extra
gains
marketplace
breaking
secon
biggest
##ron
##esis
dub
##mm
direct
receive
##imes
turn
contro
hope
july
##by
emer
dou
ema
crowds
automatically
green
feat
##ny
##tage
zilliq
friday
unders
less
##port
deal
rates
##ests
init
artificialintelligence
##rd
requ
far
pan
zilliqa
91
##cience
iss
jack
##markets
music
sugg
##ignal
create
##tant
##89
away
public
allow
economy
##ora
games
plan
same
qt
partners
activity
##bm
listing
cryptsy
complete
##bet
arbing
##community
dm
##34
reddcoin
##si
univer
explain
##contracts
dl
##sw
participate
##olis
onto
##29
dump
##umb
disc
##oss
foxnews
growth
mic
fee
altseason
##ville
done
##vert
##gas
crowdsale
hardware
betting
access
things
mil
hum
publish
rising
##ae
##erica
reddit
##cad
merch
##ime
name
71
genesis
##ute
##ject
firm
##ior
monday
##agement
##ually
##69
ooo
stockmarket
ihub
##pi
amazon
##iting
##ames
##edom
61
rdd
tokoin
left
sal
bak
dubai
##igo
datas
##37
bid
swap
sharing
appro
realesta
##lic
##fol
thing
##ath
apple
meet
##bling
rally
##ify
june
includ
##trade
trending
quest
huob
qtum
tell
##hip
##qn
reason
cex
robotics
##toshi
cc
possible
jan
##ght
##posts
ps
##28
##ester
##39
reward
information
least
small
alt
msme
##fut
brand
stockposts
higher
momentum
details
itos
##coming
##ey
projects
generated
##mb
##ists
##ody
rate
hr
understand
realestate
might
##ison
##thers
form
##rup
blog
startups
##anged
##ulation
basic
august
##nect
##australia
##job
robots
must
sum
book
transfer
bring
atl
purch
perform
datascience
both
##esh
software
##ald
ooobtc
##folio
##equity
##cle
avg
##aka
eco
##68
asia
##apolis
something
##ives
##online
place
ios
privateequity
vc
everything
##iami
earning
put
dem
##wh
quick
##ouse
##zz
##erve
war
nor
##44
##safe
##ok
##ness
within
hitbtc
event
bakkt
ontology
##options
york
silver
canad
##uter
##count
cryptotwitter
##ases
cho
##talk
exc
##paye
agile
##tember
bizpaye
september
##iate
tasks
##tool
contract
##iment
withdraw
europe
automatedtrading
den
5000
##platform
##iner
fail
little
korea
impor
quantum
gaming
##zil
##ised
##ug
view
working
ho
prom
##gox
huobi
##uts
##clus
##cing
tradingview
catch
city
##na
eff
dra
simple
##cus
miami
##ave
##ially
euro
exce
state
cur
talk
discuss
##ism
until
proble
site
##ailintelligence
artificailintelligence
stand
##cy
kick
oil
##fee
model
wel
tomor
mtgox
##ights
ge
instit
venture
manager
such
atta
tomorrow
##str
shit
educ
bita
400
brazil
oper
germany
makes
##rade
##wap
2000
##bre
##yo
doing
##eng
mx
wal
volat
##marketing
##iano
##fr
##off
income
##rading
cross
deposit
##jobs
goes
number
##wards
150
##ession
eyes
##urs
##55
rele
nash
pra
##star
##fra
aud
larg
tx
50000
##moto
##atoshi
micro
hon
##city
##zuel
peer
case
##lex
travel
##gress
##taly
##bab
equ
##lines
action
lower
round
uae
gambling
interested
##cup
crash
intro
##game
latimes
aff
lif
##enix
bulls
##akamoto
cryptoexchange
cryptowallet
singapore
##ators
p2p
clos
##ompl
##tracker
##uff
index
##ompliano
phil
wink
point
scal
arbitraj
##38
##invest
bottom
analyst
##system
arbingtool
##val
##itch
accoun
argent
##orn
billionaire
ty
track
stor
##ban
bounce
mean
history
##26
indic
continue
##74
air
phoenix
ltc
valu
##thoughts
local
review
bad
##clusive
institution
initial
beh
innovation
old
jpy
##len
dom
notification
##fect
##peso
source
important
prem
indian
sho
##ung
consider
others
bitapeso
##africa
multip
deep
computer
waiting
##xt
experience
##dy
ky
node
wed
weeks
recover
emerging
men
halving
##ret
pod
##ane
##street
gom
enjoy
cyber
##79
miners
download
fav
##most
mach
lis
##rum
##nown
##tl
##right
##dc
##ax
##ired
##cum
obx
##rill
aijobs
##motivation
##vis
special
##qqn
someone
distrib
toqqn
france
status
##ounder
brow
passive
competition
xrpcommunity
announce
##eth
perfect
argentina
compan
wonder
##arch
stud
##sk
##stream
merchants
mess
mex
said
las
smar
range
rsi
gas
yes
suggests
##ito
smartcontracts
regulation
added
gominer
##odes
20000
amoun
##zy
exclusive
tradesatoshi
##ten
inte
dr
auto
companies
pushing
cryptopia
ten
##esome
esp
##cast
##ares
bene
##lc
founder
##49
gets
position
##nolog
ce
behind
hourly
##uesday
largest
##che
##trend
##ective
portfolio
##ba
different
bill
once
apompliano
awesome
##59
sportsbook
proper
welcome
bs
weed
dominance
##eg
auth
product
##bur
second
raven
advan
italy
step
ecosystem
guide
email
needs
##zuela
chin
mac
esta
2016
##nes
stream
dark
##gbp
introd
##36
golden
resp
##mon
discount
forextrading
##aj
sentiment
dip
cryptocurrencymarket
##vember
tag
polygon
bpi
discover
##frame
cz
mastern
##ission
es
benef
gate
quarkchain
##iff
ath
##cryptocurrency
intern
sit
drife
management
##ecast
november
##ball
southafrica
subs
hits
bag
massive
ep
finally
freedom
##iable
press
forget
ard
##obitcoin
##0000000
##ling
##ofth
record
dex
prov
fork
emp
##78
surge
spot
during
##anton
cool
line
##32
user
icotracker
seen
penn
##crunch
prote
fomo
forexsignals
##my
##48
##blockchain
giving
six
lisk
ravencoin
mel
nov
mexico
##ified
equity
##ever
taking
##hn
8000
atm
influ
spain
ref
charts
wee
prin
atlanta
##asing
lar
##ident
##td
options
remain
##credit
ml
almost
ye
accounts
blocks
touch
process
105
##ises
database
##aba
##cx
ranking
fam
##gan
instantly
chinese
chr
promot
##onym
##cow
##arning
mid
tuesday
aust
##lf
##illa
confir
##gether
domainn
##futures
##iant
dep
mem
continues
##ones
p2psf
deals
pairs
wallstreet
vision
bub
btcgbp
btcnews
##ars
control
cub
##head
cent
holding
##ference
duration
fil
losange
entrepreneurs
mbm
paper
daytrader
der
##don
lets
mot
##graphy
sn
##ler
accepting
trig
orion
fan
road
mill
##rid
##mc
lol
growing
ven
##amp
vote
strateg
poker
algorith
stack
changed
directly
pips
neut
offers
changes
forextrader
popular
##aps
exec
bits
weeken
content
mbmtoken
##dex
##vious
##ursday
forecast
cryptocoin
nothing
##olid
##play
mmm
##itex
##apital
##ands
paris
##vr
technews
##vent
bitcointalk
hous
##ror
volatility
reserve
b2b
technolog
machine
weak
auction
##world
fash
wants
orders
answ
##aut
##ality
sand
##ration
reme
enjin
photo
updates
dy
amount
##eral
interview
leading
advert
cand
##pped
plans
##ief
##62
##98
spread
est
##urypto
##azine
craig
mercad
anonym
securypto
##mod
decred
neutral
together
applic
##iot
##iod
members
morning
seems
##fx
save
##mas
cnbc
solutions
unk
##ord
created
produc
tool
starting
successful
bos
canada
entrepreneurship
bin
lim
techcrunch
##47
maxim
##lands
##uit
fix
insur
feb
##orld
div
jump
dg
##bi
eter
earned
contracts
bur
##ctor
integr
vet
weekend
hedge
late
eterbase
orionix
bor
##tocks
focus
ventur
apr
vers
squ
##za
##iswap
bitcome
remember
breakout
tur
blockchainnews
thursday
lam
hor
##ances
able
##hom
##leash
##table
charles
exmo
period
mxn
##down
##ense
##ram
##ford
##lin
likely
fair
seat
lost
modern
offering
legal
java
sora
lou
##america
mos
##trump
##thes
tam
venturec
senior
##days
soraix
developed
mercadobitcoin
oh
##roid
pngme
announces
cardpayments
hello
barter
##ef
##yer
promising
##launch
polit
##uted
##nesday
##zilla
large
##lifestyle
fashion
dece
comment
correction
imo
bch
works
shows
bubble
##offer
airdropalert
reliable
##icks
fight
##tery
newsbtc
##cean
secret
cir
chat
subscri
##acity
##aint
##ril
premium
##list
venturecapital
feed
wish
dollars
robbre
##tn
non
launching
##iling
trying
##ability
three
##bour
sunday
cf
alib
fuck
leverage
##box
##ste
##ured
bitcoinr
##ude
pull
##bn
malays
##aw
##korea
##irth
iran
reve
receiv
##phone
stuff
pi
##vc
##aland
lucky
ter
lab
##full
1st
ardor
##pres
##his
##tive
emergingmarkets
actually
800
bitf
ori
gives
wednesday
algorithm
mona
##42
ach
alibaba
##work
tokyo
hear
##tar
sus
building
pow
##ama
##erts
coup
sr
vene
property
indie
yourself
600
##res
she
yester
cricket
##ando
cry
favor
boston
disrup
beta
##rate
onlines
yesterday
##ewe
aim
demand
##coinoffer
##allas
personal
##ued
##mob
education
110
swapzilla
pund
120
steemit
##zor
theta
seg
b2c
fake
influenc
train
ben
boost
listen
##97
##llion
defin
malaysia
##core
dont
enough
##cript
hacker
dallas
accord
houston
cind
##31
##time
rul
initialcoinoffer
xera
##uis
##sto
ahead
pynk
takes
##media
420
##vegas
fur
piv
moscow
freebtc
withdrawal
profession
smartc
##moon
december
android
double
##fam
freecoin
##los
running
anything
him
abra
tokensales
##assets
question
predict
##aldtrump
iam
##worth
else
ign
provide
sats
cosm
backed
roll
##cafee
attack
##smart
bcn
oak
developers
##kes
robbreport
##cup2019
kin
means
due
##ults
##unter
##sing
maybe
mind
hi
having
according
human
##trans
hyper
africa
wow
##quer
trigger
tips
active
nether
##finance
sia
limited
fraud
##adel
futur
bartercredit
bitcoinuk
##ipping
winning
comes
published
austin
her
tex
lasvegas
ocean
##shares
netherlands
ark
drops
podcast
purchase
##usk
##uce
##paul
##tact
seattle
##burgh
cryptocurr
crick
memp
##fully
##official
##etworld
dream
bitcointrading
answer
cricketworld
bi
story
##let
release
##tandard
multi
##xs
##beach
instaeth
cricketworldcup2019
makemoneyonline
##61
phone
conference
##urday
wit
international
##dney
slo
search
desp
sanfr
##hopping
pit
##vest
recomm
##ends
renew
cards
self
##ga
mix
edt
onlineshopping
broker
9000
##uary
systems
invite
domains
players
virgin
staking
##ela
##income
ton
orl
##reg
john
repres
##ura
including
##home
##ming
wom
genesismining
forward
cosmos
cryptomining
##phia
despite
called
sydney
##itional
##irthday
house
tor
philadel
##coingame
gon
rap
##estreet
denver
steps
earnings
further
apo
australia
##kee
##otes
pret
##cc
sanj
##2020
cuba
##100
atom
buyers
##gogo
march
univers
orlando
slow
##itoken
cryptocoins
x10
customer
philadelphia
regist
january
oakland
##anc
forth
##83
##power
##bitcoins
millions
bitsmart
##ental
##omi
word
cost
jp
rub
levels
universe
baltim
##istic
binaryoptions
##ored
course
uniswap
##xy
hurr
baltimore
##bourne
instag
ur
##veland
##flare
top10
sanjose
##soft
od
##roit
cleveland
watching
beaut
saturday
thestreet
mur
ticker
##72
consul
##ety
winner
columb
chall
whole
bancor
shop
mone
boom
later
spend
browser
dapps
##82
##itable
completed
##ulu
congr
pennys
##86
learning
##pper
debit
detroit
launched
orionixtoken
##tary
towards
street
monthly
tampa
##500
symb
##ering
mr
speak
core
serious
##top
lifestyle
##den
##starter
origin
##ather
announced
collect
##43
sam
koi
digitex
ul
court
standard
fire
##ee
decentralization
cheap
americ
gift
##thestandard
across
x20
##pot
##76
##46
recommend
melbourne
meth
##wit
ill
kill
rad
cancer
##zealand
##eli
##eweek
fear
diff
##japan
np
deb
madison
##side
starts
strategies
##ects
##oci
icoalert
buff
newzealand
pennystocks
probab
##igma
##ilt
trillion
bitcoinrussia
speed
##ansas
technologies
xrpthestandard
kickstarter
deliver
##press
unknown
marketcap
##ision
iostoken
bcoin
indiegogo
perth
##mag
oma
stablecoin
koitoken
nxt
excell
ow
##oftheweek
##donaldtrump
portland
softbank
problem
commod
##ool
##aleigh
breaks
kind
spons
hashflare
cme
##org
##aren
##run
highs
memphis
nakamoto
raleigh
omaha
economic
countries
basis
##wau
timeframe
blockchains
##louis
connect
kansas
symbol
hyd
##waukee
##73
##army
findom
newsoftheweek
distributed
anonymous
##cale
##rone
reached
stlouis
bears
customers
stratis
saint
milwaukee
##tsburgh
pattern
asic
paying
byte
realdonaldtrump
tro
affil
vita
##onm
columbus
virginia
##ropping
##atives
tuc
##investor
##bay
charlot
bitcoinaustralia
satoshis
metal
washingtondc
##wide
pittsburgh
##ecrypto
rest
##ster
flo
aigo
sande
tucson
adela
acqu
jackma
charlotte
adelaide
surve
siacoin
gonna
addresses
pick
cryptog
propos
single
##lcoin
associ
oct
impro
cexio
altern
trezor
bey
##ley
##pad
log
boise
canber
canberra
consens
##ecity
author
stake
opin
##singapore
saltl
ident
nashville
250
diver
april
honol
excellent
updated
##bless
##lahom
honolulu
##launches
chille
oklahom
kansascity
za
multiple
##neapolis
avcjkorea
##antonio
copy
gatecoin
foundation
##reat
minneapolis
##leans
##dr
abraaj
##sale
emj
##querque
albu
ut
lottery
avcjjapan
albuquerque
sandeigo
walton
kual
corp
##umpur
tenx
sanantonio
##uting
experts
##ell
javas
charleston
lun
javascript
##lev
forthworth
host
tokenlaunches
pretty
opens
##tation
##96
targets
##alumpur
kualalumpur
indianapolis
binances
sanfrans
##akecity
##93
provides
built
sanfransico
method
saltlakecity
millenn
##connect
##unities
saintpaul
godbless
fill
dent
mainstream
initialcoinofferings
##fc
##paper
##orleans
rules
oklahomacity
clim
stage
neworleans
thought
##torney
losangels
products
##thet
avcjsingapore
neg
spins
previous
##ared
##yal
algorand
talking
dlt
dead
##iesville
louiesville
syn
contact
godblessamerica
commission
southaustralia
reported
##ade
night
virginiabeach
##fi
wrong
wave
moves
highest
bitshares
hurry
##bled
unl
##anger
venezuela
sav
##ctions
##from
claims
legit
##ren
earnmoney
##jpy
nj
##vin
wan
medium
##92
##fs
institutional
exist
##fri
##cam
side
##yscale
funny
microsoft
segwit
party
hong
hed
features
##dt
motivation
mention
grab
seek
##ians
##bro
protect
##ledge
##iger
reasons
leaders
grayscale
attorney
ads
visa
lin
##ival
loo
##ante
points
secur
##lenews
700
polk
daytrading
results
easily
participants
##rage
##gar
allows
powered
lose
##sr
christ
introduc
##oma
dlvr
hydro
##oned
imple
imag
kan
##ugg
##arty
cold
crazy
##ids
increased
6000
season
##ledger
ways
partnership
waltonchain
inside
enigma
pivx
lsk
##ected
##ka
manip
approach
rig
##rypt
listia
version
triang
##topia
accum
##mr
##banking
##with
##iser
solve
lend
##car
##ja
##7days
##key
fud
foot
worldwide
scrum
last7days
last7daysnews
submit
##81
beyond
traded
partner
##pool
adds
##roneum
burn
forum
met
##bx
cel
wright
##modo
##antas
country
bts
electroneum
103
##pump
##ruct
tun
##ites
1h
gem
zaif
registration
received
conce
##enge
cryptolife
bst
affiliate
##71
har
##fa
7000
surpr
unleash
##loy
cryptosignal
closed
ext
gif
##cs
##follow
invol
##uth
3000
followback
augur
##gs
var
faucets
##apay
smartcash
profitable
european
mys
##angement
125
##uation
##xit
fac
decre
nav
##comp
happening
eurusd
offic
##arter
##adot
104
glad
##gen
s9
rock
kn
knowledge
former
##gu
economics
##itation
##where
##ii
##izing
half
tes
color
cindx
##tead
released
##ffer
probably
pundi
transpar
polkadot
movement
thoughts
115
##body
family
cele
##ring
bn
touched
minim
pon
sq
komodo
outs
fully
returns
national
mov
##bon
everyday
earth
civ
dice
warn
projectm
##pu
##itor
winners
eu
##atory
kanban
##led
crip
##oc
projectmangement
##lect
america
difference
stan
cryptomarket
##argin
match
bitcoinfutures
guar
##your
excited
influencer
matter
##thab
expected
expert
graph
bitpay
professional
xbtusd
area
blocksafe
mined
jour
##aming
##ides
##urke
trends
murthab
cad
agree
##bility
managed
hashrate
instead
##global
##91
rekt
shares
##visor
murthaburke
president
questions
dao
1500
dgtx
consolid
giant
##ica
abs
##epend
celebr
##gold
increasing
page
swiss
plus
amid
##esoth
##irt
##cn
issues
estate
fib
rans
discord
xnk
##eoff
##mediate
mis
##zi
phys
##lation
##iful
needed
problems
bitcoinb
##ado
##udi
opinion
insp
went
##ater
ht
yobit
##ko
vo
##md
##ti
andre
federal
ransom
robos
##airdrop
##watch
style
robostopia
php
ange
##41
deriv
trailing
zone
##fromhome
tesla
bh
##itz
overs
mesoth
##elioma
mesothelioma
comb
##asset
crit
##ply
##fair
##ict
favorite
##project
shut
##ham
ze
##oting
testing
flow
diffic
recr
##hy
suffer
study
peter
japanese
among
solid
mm
binancesignal
organ
##steem
insurance
##dao
pax
tonight
diam
hrs
##levoss
##ties
kyc
##ipal
sys
playing
brexit
vib
choose
guess
ride
subscribe
threat
congress
performance
##ont
whales
saf
calls
##tomoned
third
11000
##ages
##tance
recently
##sey
indicator
swace
hype
north
error
##izza
##met
share2
##ibility
bytecoin
share2steem
broke
##entation
conc
instagram
livecoin
immediate
consensus
analys
cer
histo
tv
##rim
thinking
beginning
101
##saf
##trust
losses
##memes
lic
quer
##int
board
##ented
rand
mike
roger
related
102
heard
rec
cryptotrader
##advisor
##ither
accepts
sex
criptomoned
1990
passiveincome
hub
##verse
##mark
##ech
##iance
##music
beautiful
##party
##idel
meta
advis
robotcoingame
resour
adop
independ
liquidity
##ificant
fet
114
attra
vital
ends
skrill
12000
buyer
alternative
preico
ct
margin
witdraw
function
##cot
krypto
spar
##ption
cat
2021
maga
masternode
##ule
bless
liber
epis
dow
##cas
issue
resistant
900
##graphic
##themoon
entire
cryptoad
savings
nyc
promo
##ills
photography
box
nat
solved
application
##53
west
##more
band
negative
##hi
##isdom
impact
##areness
four
followers
ec
##comes
guy
scient
dai
opportunities
cover
##pring
stri
holders
##aa
faster
pack
usdt
upg
hacked
##eets
##thon
food
##board
decide
##forex
##coll
saudi
##fre
ripplenews
worlds
aird
custo
ada
masternodes
xeraexchange
progress
guarante
##ager
upcoming
took
regulatory
##pass
belie
##ague
##ension
ebay
draw
wavesplatform
consum
##morning
nfl
queried
pngcoin
##tv
##ilar
##lyer
though
107
enab
ideas
launchpad
##mak
participant
cos
significant
##investing
vegas
fuel
##max
exciting
benefits
mc
final
1200
domainnames
oversold
required
sche
winkdex
##brid
corpor
ble
happens
truth
candle
testnet
execut
nob
securities
message
eye
sound
crypton
##54
transferred
ira
correct
exam
jim
bsd
##cul
altcoinnews
etn
debt
incent
bsafe
bab
##zc
dan
python
##friday
saying
meetup
calif
american
exact
logo
gnt
revers
skyrim
donate
##class
##ically
horiz
balance
general
proofof
advertising
david
365
##ients
arch
trusted
bitsend
remot
fact
jst
algorithmic
laws
vr
blue
##uction
##ienc
member
cro
episode
cut
apollo
##alerts
irs
sources
##ermin
glob
explained
##rast
creating
wild
capitalization
announcement
californ
storm
##ulo
##men
monetary
ell
traditional
domainname
quality
prepar
front
##tone
##mart
atr
uses
virtualcurrency
remin
##rab
btf
##oint
sees
##upd
##irl
##aces
bitco
##ensive
ff
qa
science
discussion
##dax
##strat
whitepaper
thepump
##isco
showing
thepumpadvisor
alex
oceanex
140
##mine
##ara
spdr
##vt
##ength
##ari
original
camp
bullrun
##tors
moved
historic
inflation
diamond
env
decision
longer
shopping
request
##temp
##nom
along
limit
simply
##earn
raises
peters
lending
bitcoins
##cked
lightningnetwork
15000
seeing
##learning
##ruary
##marketplace
remote
contri
whats
106
btctn
mobilebanking
california
highly
reven
millennium
hid
imagine
##house
##tics
electric
##itely
chief
analysts
niger
lambo
##ideos
##nam
february
holds
cryptoinvestor
1700
##ged
##andd
weakly
108
falling
christmas
recovery
five
hp
valid
rid
vitalik
strugg
minimum
accur
strongly
memes
awareness
##js
4000
utrust
##blish
land
shorts
regulations
ple
platforms
becomes
prize
square
130
women
size
predictions
concept
##va
tip
explains
otc
generation
dest
fundam
establish
advice
##rn
##han
113
priced
retire
180
alleg
install
##check
apps
##code
russ
##ris
iphone
##ently
workfromhome
##58
##52
valuable
exit
lay
##ivid
achieve
comments
scale
socialmedia
ram
##business
##ructure
##ffic
demo
xl
missed
birthday
aion
referal
derivatives
brings
bigger
##ecard
fb
##bound
shipping
tweeted
banktrans
##race
designed
thecrypto
convert
##found
signup
hands
presale
reality
##force
swing
##51
##hood
airdropping
##lier
react
kyber
##econom
fort
cases
##stat
nearly
ibm
##57
##mini
invitation
certain
fcoin
##law
lots
wantmarketplace
identity
hop
40000
talks
##gang
worst
##ding
however
##icy
##iveaway
donations
infrast
##anddump
cny
2nd
##win
clients
pumpanddump
powerful
dragon
117
remains
seconds
##domain
loopring
##rap
series
##ky
bcc
surv
friendly
commodities
##hack
##ulous
infrastructure
either
signs
##ench
corn
congrat
##idence
##olute
##tp
videos
##magazine
je
training
kore
cond
##rain
##une
often
football
mich
owners
saw
##kong
innovative
macd
##flu
tools
##terin
silk
##unic
temp
##wa
magic
magazine
##imited
##iny
cripto
regulators
##isis
whe
##ffee
gox
triangle
vip
ice
counter
basiscoin
sparrow
winklevoss
##just
couple
##cen
monster
haven
##undering
improve
##oid
##ml
ipl
definitely
quotes
etherium
dru
zload
changing
told
##ilum
soc
cine
##hold
##iel
##wk
confirm
zloadr
stories
arr
absolute
fantom
dyor
wanchain
lawyer
whatsapp
paysaf
justins
divid
bitflyer
paysafecard
pie
fresh
supports
qash
flip
type
fixed
##abol
##etrading
appear
death
cloudmining
bitcoinist
tothemoon
scri
usdk
##uls
reveals
representa
considering
given
##reen
okpay
prec
tweets
experienc
involved
chf
stick
aims
##56
choice
accumul
##antasy
bets
institutions
##eny
dear
##mi
creation
stabled
gig
##pc
executive
stabledex
##chase
director
##ory
syscoin
cryptoadvent
individ
aur
bitcoinexchange
ultim
##cha
sever
club
feature
falls
goal
xrparmy
shill
infos
chip
concern
##zn
strength
enterpr
##chat
##tori
room
##ipe
109
reading
##test
##iest
explo
freel
known
utility
losing
accepted
beat
slots
230
nba
##field
giveaways
##aging
determin
broken
##bul
benefit
##2018
storage
loyal
taken
advanced
suggest
gal
lee
##cryp
russian
##group
pizza
governments
parabol
extre
sponsored
30000
##stant
quite
##vene
##ulations
overview
base
sha
invested
##dle
ber
tp
tomo
##vo
happened
benipal
##ett
##ady
##mar
colo
##kit
civic
##loo
pays
officially
eg
wanted
brave
kar
keys
cashapp
##wc
##emy
becoming
##bymob
xcardbymob
several
nuc
xcardbymobilum
##chiff
##tof
charg
loom
itself
sid
bell
bitconnect
mission
##tab
##foundation
mixed
##ceed
bnb
##iw
1800
peterschiff
sms
##strate
wind
##ael
gd
##ias
supported
reveal
gree
knows
digitalassets
effic
##gi
leo
##amb
scheme
envir
cit
dam
synthet
van
stra
##nz
joins
##india
paypig
wgn
srx
goals
similar
provider
##cho
350
xzc
##fluence
docum
crypt
ltd
##protocol
cftc
alph
iconomi
flash
fly
##ately
sams
118
leader
##club
ransomware
deposits
malware
##tips
##venezuela
cryptoadventura
##vs
rights
brief
##uer
112
challenge
##ox
dips
robin
joining
##uring
susp
##mary
cryptocoinsnews
1100
easier
##freedom
fol
bitc
child
##pre
xr
teach
fundamental
##minent
##cg
##lab
instacrypto
caus
gone
##mal
commerce
office
replace
vic
hacking
leave
newcryptocurrency
expand
rapid
events
panama
wo
##mcafee
leadership
gemini
##ckets
vergecurrency
##eling
computing
##abi
pain
hex
##apse
colorado
##gp
##anna
nodes
##uan
distribution
pullback
upside
rip
##gory
reject
school
infin
verify
costs
domin
minute
surpass
jumps
infosec
bitr
##rix
extreme
instaethereum
nucle
hodloo
mcafee
body
taxes
retirement
sor
##start
mentioned
##tip
instabtc
500000
##untron
politics
justinsuntron
begins
grand
##ancisco
##loud
fat
farm
buybitcoin
##mew
developing
410
##aring
##anch
race
##jack
##fork
instablockchain
instaairdrop
blood
##1st
instabitcoin
yo
api
lows
##atz
attemp
pac
##bed
atms
cause
bith
lv
instavenezuela
congratulations
yen
exchanged
coincheck
treas
police
labs
loc
mlm
ang
load
humans
##classic
##abtc
##night
thous
result
yearn
instaico
##del
ars
secretcontracts
dir
kong
selldomain
pict
rlc
##ius
freemoney
instacryptocurrency
summer
##fish
quickly
geo
till
##care
panic
19903
directs
analytics
scaling
##xx
curated
creator
instanews
nft
wins
representative
infographic
synthetix
revenue
samsung
##rs
admin
loyalty
truly
divers
rather
##racle
jud
drive
nar
##ede
reversal
valuation
attract
shap
bags
sustain
present
miv
feeling
reports
pose
llc
##here
##alley
uptrend
litecoinfam
fetch
##live
ethusd
wax
freecrypto
116
random
alleged
binaryoption
##ada
f1
oxy
##future
soraixico
##els
client
colle
##ibra
##idi
settle
##miners
bol
followme
ak
nuls
ink
obs
gro
##roll
hyip
ponzi
dog
steal
decentraland
##dog
qatar
coinpayments
##nal
ez
bitcoinis
avoid
recruit
exactly
warning
sense
holo
promotion
fit
ones
directsales
values
220
##ilities
localbitcoins
debate
##ria
##strading
chair
thread
tu
hur
dro
##char
optim
##bar
mp
aelf
##pol
##reci
crisis
bz
forever
##pose
encryp
##bits
maid
upper
phase
advantage
380
tier
korean
loan
##ena
throw
note
##ns
mb
checkout
commit
releases
bbn
arri
tuned
btk
immediately
keeps
##bute
##ended
applications
##eat
charity
stablecoins
soccer
daps
cs
swift
##boy
vibe
estim
hell
held
tom
##ault
physical
switch
trial
coffee
retest
psu
anywhere
crimin
##put
##ulty
universal
##icoin
##wise
criptomonedas
resources
delta
field
##map
cycle
medic
##istics
##wisdom
##war
##cre
rug
livest
2000000
assistan
script
hashtag
scams
##pv
livestream
##eday
combin
##ecess
communic
understanding
ost
cryptosignals
bb
impress
comsa
bob
##rian
hidden
##koin
volum
warns
twitch
blockstream
centralized
proud
##iy
koin
dealing
raise
##buzz
austral
piece
upgrade
##epe
fig
135
tokensnet
aurora
came
advertise
stolen
electron
holdings
sqpay
uber
satoshin
led
cryptoart
160
freetokens
##addy
scen
il
cryptom
##ource
##jo
##ounds
pin
##contract
hodlers
tokenmarket
discoin
##bles
##ows
##week
mastercard
center
bio
##ensor
fidel
ing
##team
##capital
evolution
rare
3rd
financialfreedom
robinhood
##perform
warren
fu
##hk
arn
az
##iph
unlimited
##word
era
precio
##thus
reco
##anda
agg
edge
##ural
##feeling
mainframe
##icon
policy
incred
providing
possib
fish
machinelearning
laundering
##axy
holid
radio
##iction
employ
mas
##pays
circle
##look
bybit
gamecoin
whitebit
oxycoin
spike
aid
poll
voting
##shot
math
hodling
october1st
paul
summit
bbc
##abit
brain
preicosale
2009
disp
fridayfeeling
##stake
##erland
increases
pract
devot
##broker
weight
##onmusk
meaning
fidelity
covid
operations
##lish
officialmcafee
baby
rocket
parabolic
##collective
##mers
##ih
failed
harm
persp
elonmusk
##upp
##anned
greed
##para
cmc
##chester
##fauc
##bull
custody
aggreg
##oly
##ops
bitrue
##buy
##0x
##ife
xmr
investig
regulated
ine
prefer
##mobile
gb
nexo
useful
multiply
manipulation
##nx
die
completely
235
difficulty
arrest
##beast
fastest
##irls
young
battle
dia
##200
##usa
hashpower
achie
##li
calling
ba
##osed
wanna
##love
aml
risks
meme
paxos
bitex
##prof
terms
##post
##dn
ens
nys
billions
decreased
folks
ultimate
##light
enthus
medical
##ibit
vin
##apo
yah
##idon
btcusdt
adding
##peek
consulting
240
pressure
b19
ess
##wego
##hod
fans
dax
common
honest
119
##xb
fiver
zen
facts
appreci
##management
pom
none
herewego
hashgraph
##eration
##ciety
betf
sis
sir
michael
##free
thecollective
##tonom
posted
transparency
sugar
optionstrading
university
freecoins
coing
fucking
whether
wide
decent
worry
##cious
wonderful
##tokens
espec
##eway
morgan
##oncoin
##ym
170
que
##toro
archit
thecollectivego
calcul
district
pak
situation
explor
staff
##achs
closer
##illionaire
fiverr
360
320
##ios
alertco
survey
##cra
##elves
especially
##cloud
bitcoin2019
earlier
##erv
bitcoinmagazine
networks
spark
##ersey
mini
transact
bbnai
agre
scammed
##ucks
joined
integration
##itzerland
blessings
hl
tf
direction
250000
nigeria
wise
elliot
##eways
nebl
aet
force
##tick
charl
traffic
enterpreneur
australian
##outs
mainnet
##conf
smartmoney
movie
##uf
switzerland
recogn
age
##gun
##stic
btcpeek
pros
lack
##izes
yabtc
##ires
yabtcl
words
##usion
helping
architect
##cour
satoshinakamoto
retrace
poet
bitcoinisback
opening
gap
##index
ecb
##ided
##cel
crude
reaches
vertcoin
greece
coun
btceur
takeoff
peak
##ernity
##hs
##morgan
poseidon
##ona
canadian
attacks
gar
ipo
401
usern
scar
absolutely
##rick
thankful
##umens
abc
various
cryptoassets
##cking
remo
outperform
flor
##you
recruitment
##stock
##hq
server
german
actual
##onment
digitexfutures
1600
##olf
kit
trueusd
blow
payout
adam
dim
ground
everybody
futurest
leads
finish
sorry
quote
##strategy
deterministic
blu
##today
##influence
loses
##van
odys
implement
wake
positions
wtc
##eds
odds
nz
hunt
assistant
writ
##aser
npxs
numbers
cryptoworld
##otcom
amb
##nl
##lle
illeg
mart
usdjpy
peace
embra
sideways
##tur
hosting
##wm
plun
drug
##things
mco
username
##nex
##ught
inform
234
##omb
jpmorgan
kmd
straight
##faucet
cryptography
unve
enterprise
smo
rou
commer
losangeles
000
##ender
advise
youtu
manage
##ocoin
##icorn
sites
dropped
##wood
succeed
##xc
malta
supporting
miles
hos
aeternity
omise
shitcoin
decline
snap
sector
guard
flag
##ences
##unk
spir
ccn
perspective
cred
campbx
##5g
cryptomemes
##sover
consolidation
##her
##dden
smartphone
expecting
jos
feels
regulator
spending
nyse
yahoo
##ida
player
##uv
maximal
monitor
college
confirmed
beginners
manchester
okcash
wedge
##rich
digitalasset
likes
waste
cryptocurrencies
##ges
futurestrading
##iet
storj
sudden
lamb
cloak
middle
##icious
##gence
pumping
respons
colomb
450
oracle
fas
environment
necess
##illance
225
##kon
writing
##utrade
picture
##games
nobody
edition
odyssey
convers
volatile
mit
scrypt
##ping
topinfluence
coupon
##inner
planning
##irus
hom
rum
effect
cdt
rp
##chan
incoming
elas
##ably
##bert
journey
##ils
##000000000
height
anti
##bridge
experienced
surveillance
jersey
nexus
##ots
coinchase
solar
##oul
bus
pc
##birthday
175
##daily
##status
kr
thinks
balbo
manipul
jackpot
getbtc
intelligence
prayer
salt
helps
##investment
##dra
##smarter
##yr
##playing
##can
balboas
slot
leban
respon
promote
factor
##mad
##vip
heading
##lls
jam
buys
cros
dut
places
##tonomous
porn
chris
##pn
credits
##economy
kh
collapse
bleutrade
##aking
260
##1h
volumes
lowest
##cending
flex
##mentation
##ains
alpha
##town
##anh
elastos
##face
simpl
digix
zerofe
vul
historical
pure
zec
##biz
shift
living
role
##k5
##views
##design
independent
task
##rative
revolutionary
doubt
hate
##point
btfd
burst
inspir
associate
ups
cryto
xlm
330
imm
luc
digitalmine
##erex
bug
compound
util
hodlsmarter
greatest
##atm
francisco
elad
jeff
##tf
2500
happybirthday
outside
santa
##flix
##avy
electricity
bang
25000
breach
skills
opened
cointrend
lebanon
##thebeast
##toun
struct
##antonop
##rilla
hive
keeping
engineering
##3p
prime
gainers
proofofstake
##ery
map
hearing
##obot
##got
##math
##crash
##totrade
seo
algory
goldman
compliance
cryptocur
quarter
cryptoalerts
epic
firms
water
##800
cointrendz
boy
missing
##roy
##tex
asks
##256
##ava
5010
border
cryptotrade
shirt
purchases
implementation
acquire
hepays
congrats
##irts
hardfork
ron
boss
spx
3d
mi
124
bah
spl
scalability
yoy
nodejs
##allow
xau
zerofeetrading
qr
kids
iplf
unleashthebeast
angeles
insane
##ded
isra
readytoun
readytounleash
##fy
sistem
resid
moneygram
##angu
scientists
colombia
roadmap
por
##ete
theb
remotely
commercial
##cession
##onto
##ening
digitalmarketing
myself
example
initi
healthy
crossover
achieved
texas
145
##20d
fool
father
require
clean
##fast
bringing
1300
cindxtoken
##aker
healthcare
whitebit6
##asure
cyberg
horizen
justin
illegal
topics
##cott
screen
specul
hl1h
conver
acceler
##tein
focused
cryptotab
rises
nation
##uerrilla
setting
##eof
##pes
theft
patent
cyberguerrilla
hemp
apply
signed
##pv4
dedic
##ateral
##corp
wabi
##lling
##bb
society
prosp
featured
sending
atr20d
delay
path
8500
##qx
tone
bitcoinh
efficient
existing
210
linux
mondaymotivation
poor
hongkong
sparrowoptions
bay
iq
##vere
became
detected
##info
##np
##esp
fine
substrat
##jty
ju
##gvc
os
buzz
gpu
##room
##mextra
##clg
##turk
substratum
##888
liter
entertain
bul
predicted
tickets
profile
190
##6ds
kri
##mission
dj
##rev
##stpv4
##ggle
##sm3p
##59fs
##srk5
bhgvc
mmmextra
##5g6ds
##clg5g6ds
##stpv4srk5
##sm3p59fs
bhgvcsm3p59fs
##clg5g6dsstpv4srk5
bhgvcsm3p59fsclg5g6dsstpv4srk5
bhgvcsm3p59fsclg5g6dsstpv4srk5jty
adx
password
##currencies
compar
ytd
bigone
contain
##paid
13000
##ingsats
7500
netflix
disruption
omisego
devices
##rive
gbpusd
##nomore
wordpress
film
##erves
extremely
meeting
sistemkoin
advance
boo
industries
asked
session
runs
turned
begun
btcc
aantonop
##take
populous
plunge
qlink
coron
##ials
yeah
journal
##rets
orderbook
ii
write
turns
mg
posts
overb
iamplatform
guaranteed
hashtags
circ
rektnomore
##vy
cryptooptions
##365
abbc
submitted
psy
bittrexexchange
##cape
tomochain
constant
obvious
##acing
##betting
stackingsats
alerts
transform
##kn
hourlycrypto
pakistan
##signal
##tages
mus
political
prux
linked
##kk
fanta
monacoin
##crow
##2x
funfair
##eda
files
citiz
mother
##eks
afford
bot10
lawsuit
frame
recession
movies
##going
seeks
##ario
learned
##cords
##w3
license
pal
dirv
gun
ham
##2earn
plays
critical
##gain
bcash
##abor
skycoin
darkcoin
theh
##traders
##inc
proven
toggle
collateral
luckyfish
##uru
indicators
##itions
cup
fal
##bel
##berate
hyperledger
transparent
##cd
reminder
select
priz
zclassic
union
fell
##edia
closing
##dset
gxs
ip
etherum
faith
learn2earn
bagile
##ried
broad
thousands
seem
fantastic
wire
##urance
##lled
ship
brid
disapp
ie
personalfinance
faces
downtrend
vitatoken
treasury
##ander
jon
nucleus
overbought
##mx
desk
fantasy
anton
##gratz
clicking
item
##tha
digixdao
##note
bread
creative
##ermine
bidcoin
##update
mana
144
integrate
##ini
compared
indones
afric
##een
corporate
hund
realize
soul
incredible
cream
tried
girl
##gaming
dispens
##tamp
slowly
seriously
intial
regular
outlook
viberate
quad
descri
tierion
podminers
pets
btr
celer
270
##claim
##web
shitcoins
##jones
##labs
raid
roi
park
stores
raised
##eer
123
mh
bird
scan
rall
owner
pink
fore
crack
xapo
viacoin
280
vulner
##well
unlike
milestone
##ankind
insurtech
remit
4th
##nn
tap
additional
##letter
hundred
##avirus
ball
dacx
telcoin
climb
rule
b3
##icator
slight
heart
squad
tuesdaythoughts
rain
##ette
##tox
conven
##zo
macro
precious
dynam
kim
ub
enable
imminent
na
smartcontract
regarding
750
dor
repu
novo
introduces
##road
##ailand
##mail
notified
##fers
dividends
programming
nebul
##tipbot
ol
holiday
insight
##111
explore
rating
bots
##tally
lap
##rg
##upid
##999
espn
enables
donation
asking
##rome
survive
singular
cryptogiveaway
decided
bright
ignition
tiny
consumers
shad
delivery
commodity
ama
##2b
##entary
coronavirus
mankind
##entially
##vention
xrptipbot
goldcoin
edo
loans
##zelle
##bucks
brit
##aks
hitting
polymath
confirmation
##aires
administ
liberty
246
censor
##uals
express
bluzelle
eventually
performed
sugarbab
viral
minister
bonusft
panam
tim
prep
tqn
bids
records
##pan
stre
pix
swipe
poa
ln
##inex
pas
bonds
clicks
forks
wednesdaywisdom
147
successfully
valley
texo
bitcoinlifestyle
##erson
grin
tight
coinge
menapay
novogratz
prior
##ked
kcs
ts
decentralised
advisor
cryptokit
gaining
approval
prop
trap
believes
overstock
##litecoin
recieve
ah
gld
dc
mu
licens
summary
##190
iotex
sonm
##jam
##ulture
confidence
##ature
crime
##chs
sport
gave
effective
##orter
cybercri
singularity
oax
disrupt
unicorn
careful
governance
calibra
affect
adopt
growthhack
maximum
dropping
##tee
stupid
##mework
##buterin
dispensary
##igital
cryptocurrencyexchange
florida
trx
1900
##101
grad
literally
bithumb
gat
bitcoiner
awa
155
hedera
mn
##jp
streaming
##vey
bonuses
mmmglobal
electronic
sets
##jia
##cko
dreams
expans
thailand
vitalikbuterin
gdax
forexlifestyle
##aged
##ports
ticket
1400
framework
imposs
oz
somet
weighted
##mn
##ground
##tes
kripto
##etime
bountyh
##abitcoins
lives
destroy
turning
shirts
donald
native
cloakcoin
ax
stopped
111
galaxy
pumps
issued
mith
pep
bud
##hash
##stand
repl
##casino
sme
arrested
brian
lever
##ional
aka
bankers
surprise
pngmemobile
anymore
gained
panamabitcoins
includes
insider
nebulas
challeng
sf
##wal
heavy
anim
langu
tum
##self
expensive
##iar
introducing
##uing
totally
127
protection
inbound
referrals
flat
14000
include
camera
champ
superb
corrup
sched
##ya
tested
damn
score
seed
file
secrets
specialist
##ergy
sponsor
##01
steam
merchant
erd
patience
judge
charge
andrew
trace
lidi
##km
lidiapay
newsletter
ll
gamble
etoro
toward
##shire
##forsale
skyro
sixnetwork
##gam
##eze
accumulate
##kh
ia
##tock
coinalert
##valued
hs
handle
sitting
##ees
dutch
impossible
tank
stats
tit
ry
links
##ucker
equival
dta
##again
crex
cert
collabor
embrace
finans
xrb
easiest
b1
dedicated
blockfolio
followed
##653
closes
wat
xrpusd
books
lock
influencermarketing
thachs
chrom
thachsanh
ae
enthusias
reply
##ept
driving
##xrp
usdtry
fortune
tokenization
cryptocurency
##ev
failure
tradingcrypto
##keiser
elliottw
explan
stacks
thursdaythoughts
sachs
altcointrading
##rew
##cles
tour
neblio
ft
arm
guardian
spirit
##tpal
bqx
climate
equivalent
scammers
harmony
mintpal
expos
##olar
##ewallet
spin
##ublic
hourlycryptostatus
agency
gamer
##oper
maidsafe
image
print
computerart
greater
steady
##kr
finds
##show
128
sweet
woman
swacetoken
rs
##ummit
tops
settlement
300000
expands
shared
burned
unit
hair
const
bitcoinalert
elliottwave
superior
nf
##transformation
##mg
difficult
names
laugh
maxkeiser
election
coord
134
district0x
401k
proposal
##aving
gifto
##eware
amber
yoyo
upon
##gard
pray
hedgefund
foreign
bitcoinalertbot
##vision
majority
290
bcd
receiving
iii
bitcoinminer
tells
groest
fold
##services
##profit
araw
btcon
concerns
##eofficial
charlie
html
##amboo
learnbitcoin
contrib
accuracy
##lights
cents
son
deribit
##fun
voice
mile
##rig
dragonchain
philipp
sad
fel
##review
129
followfriday
lag
##updates
##fort
woo
137
kid
bitcoinp
##sary
necessary
bitcoiners
##new
domainers
##outh
stronger
##ection
amp
wepower
##clicks
groestlcoin
mechan
ruble
##bate
purpose
prizes
blackcoin
consumer
troub
individuals
##alloween
##metal
authorities
england
growthhacking
celebrate
specific
xauusd
##boe
iohk
senate
printing
correlation
digitaltransformation
179
hopefully
facing
149
devops
performing
respect
kob
##bal
effort
aggregated
eat
forming
acquis
planet
combined
##generation
chairman
transfers
mb8
ggp
tab
scenario
##ector
feedly
##wait
mom
##icip
##idential
poland
lifetime
rush
##rond
introduce
crp
cryptoc
##traday
310
payouts
139
##etech
236
tko
response
##inos
##abc
##intern
l3
##eshift
cryptocurreny
wik
##blo
ability
elrond
stability
##maker
buid
256
downside
moun
monstercoingame
136
ioi
asian
favour
beginner
219
percen
grows
speculation
##kver
cryptokitties
##hat
##wr
btcclicks
##poker
ongoing
tracking
bbnaija
valued
mail
richard
percentage
rogerkver
##thew
overall
##wall
speaking
referring
reduc
md
hawk
equals
regulate
hire
struggling
french
prepare
unus
appar
attempt
nature
usdcad
turkey
wex
##emp
inplay
5000000
##arab
2200
hodlgang
##adan
anth
driven
##orders
##rem
supre
normal
vac
silicon
anticip
branding
##gate
233
tuesdaymotivation
interne
224
parad
thes
850
intraday
skill
startcoin
jord
vrab
##international
challenges
tg
xp
safety
atomic
surprised
websites
potcoin
approved
censorship
##prices
james
shapeshift
hsr
##1111
east
decentralize
apollocurrency
138
activities
layer
bart
mug
arrived
lcg
##pts
included
qubit
decl
elite
##justice
vault
euc
fails
nod
##har
caught
cboe
arab
cct
wra
aus
lunyr
guarantee
##zero
##cons
offerings
consultant
spent
kuwait
danger
carbon
paywith
snow
##ses
orange
##ician
articles
mega
153
princ
yuan
##990
##charts
explanation
nick
##eed
confirms
340
allowing
maintain
putting
148
entertainment
btcp
tronfoundation
unknow
integrated
##ufact
usage
##unters
##izz
237
creates
##brand
415
430
185
##lot2
ggplot2
##acoin
inspiration
##88block
thems
133
curious
stanford
convin
pen
sharp
african
rose
##ket
##umption
gateway
bitru
secured
165
frank
fallen
hiph
##certain
bitrueofficial
##uz
merry
580
##iri
mondaythoughts
tags
unveils
contentmarketing
bsv
btcecom
fuji
notice
accurate
keiser
satoshil
bot1010
revealed
eri
ug
andreas
##lli
chrome
buidl
b15
marketwatch
159
structure
decade
apl
students
650
ya
ast
wings
alone
chromia
bitcion
##lay
##cex
whate
hedget
##priv
##ikes
betfury
undervalued
##asts
630
b20
quiet
etfs
reportedly
medicare
verified
quants
##aced
knc
song
##xp
internetof
theory
shot
matters
seeking
seven
digif
hodler
risen
joe
panel
##lor
schiff
cryptoasset
terror
##value
lunch
122
hedgetrade
possibly
metric
entering
individual
digest
forexmarket
lew
uncertain
capitalgain
ruby
themselves
##ien
english
manufact
registered
spotify
cindicator
considered
ru
possibility
dowjones
jordan
fundstrat
inevi
lines
##ustle
divergence
##nexus
##mason
pundix
anonymity
##4btc
##dp
prove
mlb
bills
thom
##asp
##vium
introduction
clar
##ata
cant
everex
authority
##fir
xb
evol
crex24
##drop
newest
eucx
##standard
whatever
offered
approaching
830
confident
professionals
apw3
publishing
##unes
##enty
town
generate
comet
brent
buterin
winter
##ishing
neverwork
neverworkagain
##og
##brain
sg
##eless
unless
hea
##ithub
mod88block
victim
artist
depend
text
provided
quantstamp
digifinex
##nu
sco
depart
ther
255
livestreaming
british
##oil
iwm
saving
viol
tyler
cb
alth
154
enh
##aza
maximize
dad
energi
globally
expansion
btcone
ef
##through
agent
goods
instrum
chang
table
retweeted
sp500
exposure
142
##esus
notic
berlin
##ched
democr
##wire
ignore
altcoinsinvesting
sept
popularity
agrello
github
crashes
##dx
injustice
2010
brad
##nation
##iving
encryption
expec
tribet
beam
146
##issions
tribetica
horizon
##ki
dive
hat
production
carry
##adoption
roundup
enthusiasts
pir
highlights
nom
antis
supplychain
fif
everywhere
forbescrypto
bes
premier
fbi
computers
devotion
tusd
btb
223
analyze
cinema
treat
enhance
asp
hung
wy
##onac
##aked
counterparty
laptop
presents
accumulation
decrease
altcoinsinternational
##hodl
sometimes
bust
orvium
guid
##ofin
##cf
coinb
sellers
twins
ingles
##vereign
resta
##late
charges
##match
starbucks
bomb
reaching
praise
##ining
sctoken
##255
##wl
##ivity
toronto
appears
blockmason
israel
angel
##bor
monetha
recru
hin
cybercrime
satoshilite
holy
##pher
##revolution
wtf
##real
items
bitcoinau
ramadan
126
capt
2100
waitlist
digit
##ination
halloween
etherparty
##autonomous
patient
##chr
ukrain
split
singularitynet
##unten
tweet4btc
##uzz
pomt
coinstart
##2017
tutori
coinstartnl
ekon
cheaper
wexnz
##ears
##giveaway
##flow
cryptomunten
cyberguerrillaautonomous
cyberguerrillaautonomousnexus
indonesia
brows
devs
processing
3000000
ovc
##zen
##inar
admit
fibonac
dashcoin
legitim
75000
bil
##icle
orv
##rial
beha
fortn
movements
spect
emot
##tore
courses
antiscam
##vol
deflation
sque
dashpay
##lecting
ekonomi
tar
##dotcom
headed
automation
ripio
blox
pion
##under
132
##asity
steve
cars
157
okb
modobot
rewarded
ari
bitcoincash
alive
relative
telling
##wright
cure
inz
245
##gging
2011
appcoins
breakdown
relation
spreading
disruptive
regtech
antiscamtoken
filled
sed
segwit2x
##hips
egld
rent
expectation
##alon
locked
##rought
qual
##accy
sounds
device
shorting
##kin
wonderland
markaccy
coingecko
##ippepe
hyippepe
mig
bitcoinautotrade
##bf
wealthgeneration
cashback
ghs
##allenge
rebound
sql
##tled
covid19
##aneck
##ned
kava
killer
##plus
legend
estimated
honey
226
sunny
esports
ilp
comparison
820
encour
pixel
##quin
##cp
##onion
willing
teams
pxb
enters
930
174
##health
##london
tradingbot
btcturk
##chf
maidsafecoin
143
##tcrypto
insights
annual
bis
relev
btcs
surf
figure
ieos
upward
##kers
inzura
##feed
elix
philippines
ppc
prepared
beer
finding
##delta
ske
##isf
rallies
angular
imf
impressive
##vp
patrick
procoin
##ni
league
prevent
##iversary
##rys
tl
168
##ov
fitness
windows
550
bitcoinwallet
successtrading
luno
okcoin
celsi
1045
paxful
prospects
nvid
222
discovered
416
s7
cryptofollow
developments
children
indices
##oulos
b6
##aud
puts
##fall
beach
clearly
candid
nvidia
escrow
acquisition
bitcoinm
sovereign
ensure
fibonacci
steph
blackjack
proposed
##alving
##over
247
mode
200000
nam
darknet
##athon
banned
##ancer
brill
##dice
cryptob
partnerships
alch
brought
scor
dago
enforce
interface
##reserve
cruc
initiative
internetofthings
152
throughout
approve
pension
##educ
##url
recap
##drawn
rival
##enger
knew
##iter
169
##high
beware
##thereum
##used
repeat
##isto
gian
239
##leg
##ticker
withdrawn
gotta
##banked
appreciate
hundreds
##mat
##ropay
##wo
curve
scientist
idex
methods
625
vaneck
tradebot
browsermine
cpu
5th
tat
coach
continued
##while
##ller
frac
opensource
celsius
hubris
unsto
competing
##raid
370
##ira
156
established
holochain
josh
nci
cryptow
gc
operating
burency
koineks
hk
##thor
##oman
815
##farm
bitcon
399
ambit
operation
neo6
bahrain
##qr
digitalmoney
##lem
418
440
##tel
convenient
cryptobuzz
2012
spring
facil
sustainable
usb
reverse
leaving
drink
grid
anytime
brands
##noon
verification
soulecting
164
raiden
promise
ea
##rades
career
crucial
bib
sanal
hotel
witness
lg
nrg
spr
speech
thebamboo
pap
sha256
meas
sanalpara
##vays
logistics
custod
3500
stops
acad
medi
hackers
##camera
acc
##fficial
criminal
tonevays
##tical
fujicoin
##uy
##lection
natural
lite
deeponion
primex
newb
##omen
trouble
r3
audusd
##haps
##exch
creamcoin
fractal
##pal
ash
vericoin
232
crush
##lax
##thefuture
plum
kevin
reduce
aave
mir
yum
communication
infinity
instagood
allegedly
##pace
sweat
owned
tests
dar
freero
lad
kno
##lies
supreme
##ecash
flaw
americans
shake
centrality
economist
atlas
compete
criminals
##dis
alchemy
238
entered
##thef
attractive
##247
ltcusd
##bear
soars
unfair
cx
nit
unlock
caused
thursdaymotivation
bodycamera
##shipping
sep19
##energy
cryptofollower
hustle
perhaps
##ously
requires
##not
bytom
##shop
wondering
ponder
td
##360
stress
particl
bm
defstar
618
b8
##jf
statement
##asia
##ibes
q1
mostly
joke
cctip
consist
##sv
scr
presentation
defstar5
fundra
buffett
bitcoincryptocurrency
##ulse
sof
##zzi
mentor
##chief
sma
elon
graphic
sush
##munity
##etric
agreement
319
deco
onecoin
cityofin
critic
##hl
views
petro
forgot
verasity
visual
wil
retweeet
337
elf
kept
215
passed
zilla
addition
marine
167
stocksto
dumping
language
##inter
span
channels
equal
hay
##sea
beauty
antonop
agod
iraq
breakthrough
bans
##takes
bond
brilliant
anarch
dusk
guidance
hang
##elp
luxurylifestyle
restri
##oth
187
receives
##strong
influencers
centre
minor
100000000
##etf
tn
erik
ui
tokoinofficial
perfecttrade
tune
dumb
ox
##gged
##333
surging
sidechain
425
adjust
mb8coin
121
##urnam
375
heads
bridge
matrix
ease
altnews
##wer
doom
upwards
shine
2300
bias
association
ao
capacity
approx
##makers
158
skyrocket
adult
##playingfield
##fest
probot
signing
##orge
motiv
headlines
##racy
imt
##anth
##anny
##owl
levelplayingfield
ownership
compare
shor
raising
##atta
forces
explos
pools
##ran
bitno
##vior
rn
##lim
##lyn
##ams
projectx
stuck
184
lumens
##good
types
regret
jimmy
asap
166
matt
although
ode
sugard
##cos
calm
hoping
elim
projectxonline
fro
##ku
##ulard
gp
chips
plat
173
competitions
stealth
390
govt
singulard
facilita
singulardtv
##uate
upto
adap
written
xrpcomm
##blog
overnight
metaverse
preparing
##ped
top12
sens
##vine
##thed
10000000
cityofinvest
peercoin
bounties
seller
draft
nzd
mut
highbank
aware
libracoin
hybrid
elixium
##isation
permission
228
authent
inevitable
xrpthet
ended
xrpthetstandard
186
nl
blockch
consumption
##account
swed
##jar
award
sexy
recruiting
zim
tournam
topic
corner
##rep
227
grant
amounts
venezuel
experiment
advisory
##gers
electra
##lane
##ifies
basics
mikequin
machines
cryptoticker
fighting
mikequinda
rejection
settled
cracked
jail
rejected
182
##wich
tokenpay
##yourown
rakamoto
rbi
snt
##xchain
capit
##beat
##00000000
altszn
icn
##ruction
conditions
##uses
##ipped
draper
cfd
extension
nik
##ulf
performers
xrpcommmunity
afraid
prepaid
risky
uns
giveawayalert
##cin
reviews
229
dot
liquidated
gs
bern
##ros
stark
suddenly
mikequindazzi
275
##rock
grind
walmart
factors
weather
##mall
craigwright
freelance
hiphop
bitcoinbillionaire
##yz
deuts
worried
decis
answers
##tarian
950
poised
antonopoulos
##bil
##license
anc
##chi
183
172
operator
triangular
tough
##tcap
scared
holder
##wars
##challenge
hypercash
sanctions
##kle
##inator
bountyhunter
##yn
feedback
sd
nomo
##pod
##need
419
880
sells
anyway
crytocurrency
##ape
skept
junior
fortnite
coding
button
##tas
##iles
casinos
stockstowatch
cp
sks
anoncoin
alliance
blockshipping
##jan
micropay
bitnomo
b16
monet
##wah
advoc
bleed
jar
relax
##oftheday
bibox
advantages
bir
##black
dos
defend
stays
mpg
reaction
pier
follows
16000
##apped
bitwise
demon
##digital
finished
##fm
##education
##tax
regard
unstopp
##exper
pig
##each
powr
mort
wrap
##bets
globe
lewat
certainly
cryptomarkets
stag
controlled
strategic
relevant
yellow
trendline
poe
elimin
gui
cryptotickerpro
rough
##nec
reputation
##node
yearly
contribute
##rey
##mindset
anthony
##reh
##entally
acceptance
apart
nmc
humanity
##chaing
interact
dnt
mugs
##uckerberg
rhy
jun19
##serv
corporation
egy
##ibu
##month
industrial
oppos
dd
##mind
remittance
oman
##tri
tutorial
offline
continuation
hyips
##rones
##lad
cg
pic
tired
ken
purchasing
##iro
ring
cryptocom
invented
girls
except
royal
##program
lately
lands
flying
tempor
hm
citizens
870
cryptobuzztracker
clin
groups
veter
noo
kriptopara
##fox
bettingtips
##123
empower
spots
linda
##carbon
##final
intr
730
##iled
##llywood
pitch
##222
cryt
177
walk
jay
lists
riot
coti
proposes
patterns
##abo
##astic
creators
letter
ardr
##akes
masses
570
ccnmarkets
emc
bitcoina
414
590
puzz
##ray
newyorkcoin
fridaymotivation
provably
wcx
##illionaires
bitcoinbet
##illy
driver
fisher
##ua
##eal
eb
##aday
bitcoinz
btm
pharm
##tator
robert
sportsbetting
officer
##borg
1broker
reporting
##fac
##oods
##ickey
g20
fct
##uta
mbtc
##b2b
243
242
sugardaddy
244
resume
##fly
b5
##pig
sugarbaby
coinz
##master
newste
aws
monav
indians
2008
perfectly
hd
##iability
boys
##kerchief
hc
xbox
handkerchief
fears
##lee
orx
##orters
saudiarab
##machain
##madrom
cinemadrom
monavale
tul
descending
marinecoin
bchabc
bist
ifb
1030
feather
serve
slump
altnewsnu
usually
920
cryptobot
researchers
massadoption
##miss
makeyourown
##research
explode
bitlicense
176
favourite
venezuelan
ory
dn
tel
178
deploy
birds
liver
controvers
conversation
819
forexsignal
otherwise
wang
cryptoupdate
makeyourownlane
##insurance
fridaythoughts
sar
##vibes
stellarl
residual
worse
##ples
prison
##asil
##bad
numer
anybody
##usdt
squeeze
primed
bco
object
##alex
999
cd
accounting
simul
western
committee
b14
1020
##cation
thor
psycho
rus
##coders
##oi
nan
enabled
460
bth
##ahash
gov
##dollar
proofofwork
gather
810
##girls
conduct
##azette
stickers
argum
##iah
##llon
8200
chil
meets
ideal
bolt
9500
picks
##itude
lord
moeda
zoom
repost
talent
##bnb
p2pb2b
beats
##ipment
hopes
##ensity
786
pwc
candles
stealing
mpgvip
##christ
163
lil
passes
termin
primexbt
accus
##ws
##credits
skin
shilling
diversify
##aries
##storage
constantly
fc
##4f
door
tradingstrategy
jur
doc
##bh
189
compliant
finserv
##cont
##corex
genu
ukraine
authentic
djia
floor
silkroad
incorex
employees
millennials
rar
cha
tears
##develo
saudiarabia
standards
twib
188
discussing
dgd
##p2
wired
upload
267
larger
ros
##erate
##erman
thomas
department
cab
personally
automate
##iency
x2
##mack
##etch
chances
jex
notch
lesson
##uccess
fer
htc
collection
620
intel
mortg
libertarian
unstoppable
onlin
breakingnews
expanding
##matic
hired
meant
energ
##hoven
authors
century
##computing
lie
350000
chill
brook
##rant
pls
315
designer
bankrup
devoted
pirate
xyo
copper
249
republic
kle
##thm
dashboard
stellarlumens
fraction
##berry
student
daniel
helped
oi
renewable
encrypted
aver
born
##yleague
whitelist
xbase
smarth
cityofinvestment
wiz
mxc
hubrisone
networking
crosses
stacksats
owning
viv
waz
##burn
initialcoinoffering
linkedin
##weather
rpx
##join
internal
162
##oles
output
##daysof
ridic
640
smash
limits
##lam
##irx
15th
eleven
posting
educate
##idelines
##600
dock
budget
sushiswap
bip
##asty
##odus
secre
dxy
europ
##ollar
ethos
##175
enforcement
gear
heat
crossed
##server
compreh
flood
borrow
720
bund
triple
potentially
narrative
ponderist
background
265
htm
lr
pps
##jr
egypt
island
wood
##print
bithoven
newsteaser
305
famous
##ez
##bat
fixes
karat
duv
##polit
vpn
##anner
surpasses
16653
ecoin
sink
##dou
pumped
##hill
##rel
bestchange
multis
ledgerwallet
##777
luxurylife
##pat
##forts
complex
surr
basket
solving
nc
ss
barri
jpm
tinyurl
communities
##ql
micropayments
jesus
mint
promises
accumulating
duvets
vtc
efforts
##tacoin
deserves
targeting
ipl2019
##fg
615
q2
##nbc
retracement
texochat
firmachain
bed
##onindia
retailers
##azaar
##yl
##antasyleague
monitoring
iplfantasy
iplfantasyleague
ipl2019onindia
ipl2019onindiabet
indeed
trip
recre
ic
##ulus
##plan
equipment
chel
musk
wro
##rung
bold
culture
region
connection
417
241
888
cto
sues
metals
##erb
checking
pocket
terri
planned
##apping
separ
suit
justice
simulation
ending
mtl
ambcrypto
surely
htmlcoin
885
##eper
bitball
unib
readmore
crytpo
bitcoinatm
conspi
allowed
##witter
dynamic
##enet
##inum
cataly
crap
##osep
pt
##gl
##wants
stem
butter
busy
ire
##oted
spy
##2021
##swap
deutsche
gri
bitcoinag
##ception
##ades
loose
idiot
iron
##zb
##exp
rim
financ
flight
##big
noah
##tate
earnbitcoin
skyf
tradeforex
purchased
desktop
uncertainty
coinc
mortgage
ger
##df
virus
famil
shout
##report
##open
evening
density
pound
bx
##dev
chase
##iams
bitcoinagile
thu
reb
pixelbit
##lord
formed
##build
ncash
ramp
##predic
va
ara
unbanked
parties
supporters
218
1050
##burg
##wd
inbox
##igy
closely
##ati
292
##itors
queens
cree
weigh
listening
hill
wars
dolar
legis
stored
141
passion
bitcoinhalving
cita
financialservices
namecoin
meanwhile
debitcard
significantly
roo
131
location
ebook
818
10th
civil
thecryptodog
cheers
models
##wp
thus
plenty
bitkong
ross
##ensions
##emic
genius
featuring
introduced
batch
##cryptos
turk
gems
jones
competitive
mediconnect
wrote
btcprice
chiliz
false
yach
##lying
homes
loves
##gmt
roller
communications
fing
ga
notes
healthinsurance
puzzle
sight
ux
zuckerberg
announcements
wealthy
##know
##pair
owns
factom
##itary
##cil
##b0
irvine
restaur
genuine
detailed
##iwan
pdata
coinpot
ascending
anniversary
hero
nu
##hol
##shit
subject
##babwe
thrive
vebitcoin
satisf
infinite
wife
##lla
inspired
##tles
pca
consolidate
mithril
dank
arabia
worthless
copyright
crashing
possibilities
feathercoin
##picks
scalping
cop
1015
60000
cryptomon
btcsp
swe
represents
##ye
ultra
jose
##asto
##hedge
addic
eosio
arc
selected
servers
dld
##apl
207
slide
spanish
veh
influence
##hor
stacking
##like
##thub
spikes
slightly
##loss
##otech
defining
deflationary
##0n
248
crackdown
##potz
js
##linghouse
jexpotz
cryptopayments
perfectmoney
represent
approaches
##dam
##2016
100daysof
##banks
whiteexchange
controls
fisher85
645
##npik
dust
b9
##istry
199
pcaob
413
780
##will
##att
##brawl
mooning
##icit
##ahah
wazirx
tang
flipnpik
freeroll
conspiracy
bitcore
##ador
agodgmt
fisher85m
##iders
spam
iiot
indiawants
charged
apparently
arena
635
10500
##etnam
somew
army
##esy
brother
remaining
915
basically
syria
scalp
433
concl
killing
zimbabwe
##pple
480
##conomy
rumors
testim
preferred
ridiculous
##eur
paribu
stars
icy
bet365
bitcoinaverage
mand
whalealert
oryx
##cormack
netcurrency
genesisblock
prominent
ain
chains
scarcity
explaining
##vement
organization
fixedmatch
obtain
maximalists
exodus
freesp
##mix
##tari
##oback
sooner
333
doubled
importance
530
##mys
bitmax
##stack
799
##400
##b8
rapidly
blast
pec
##igm
coinigy
cast
participating
decisions
##ths
231
212
mondaymorning
##gre
impeach
shooting
datab
investigation
b0
tc
##ads
dorsey
##yw
ot
##local
cheat
##wahrung
##poin
##ppy
##creed
##zai
saif
790
##vada
##uchin
zar
##aling
##rator
quit
membership
mutual
smarthome
ratings
depositors
151
scryp
swissborg
ignor
deposited
giants
halt
existence
indiawantscrypto
##bing
bitcoincharts
hosp
##chart
anon
wallets
216
285
subscribers
pilot
maximalist
messaging
sne
161
farmer
##ala
forms
221
luckyfishio
coinbrawl
alltime
printed
##lette
recreational
wolf
##tains
pyram
twitterbot
taiwan
##vening
scalable
portal
luna
817
station
bk
nour
##uh
shall
288
382
kryptowahrung
essential
warm
latin
##je
meg
50000000
##rapid
##enever
##kid
providers
205
kik
##tout
##esa
digita
tumble
presidential
##ibly
checked
cst
tue
yang
nations
cryptoman
##ola
forexlife
##700
bitcoind
tradew
upbit
##china
saturdaythoughts
struggle
advent
bitqu
##ropy
##ifi
funded
6500
ital
195
264
exceed
##quotes
din
##coun
watchdog
continu
booming
##tic
##yy
declin
##christmas
ireland
##abilities
occur
liverpool
reclaim
spo
nitro
fellow
promoting
ww
library
vietnam
magn
delist
100daysofcode
vp
wick
##awk
bitch
##enz
scammer
stim
kapp
penny
connected
ray
surprising
pleased
roulette
login
rarible
chron
##iety
okay
retw
xt
##enda
catalyst
610
icocreed
shif
backs
commissions
445
multisig
##edy
rapids
660
etp
hints
##lloback
lies
relationship
skyfchain
scot
newly
particular
coordinator
btcspinner
mistake
licensed
##bazaar
binarytrading
speculative
wangzai
responsible
##cedo
wangzai888
588
bitgo
losers
345
kon
ner
thirdbrain
thirdbrainfx
##minings
manipulated
##may
accessible
##company
yem
##tse
whenever
##sah
causes
honestly
bullmarket
cambridge
mtc
##asy
rede
813
occup
845
##pur
revolutionize
cance
##tstock
##mans
##rated
useless
surged
dangerous
fundraising
##hees
audit
eca
latoken
freespins
ig
##shirt
drugs
##how
stabil
binancechain
federalreserve
document
nich
rsk
steven
audio
coldstorage
calculus
databases
##epos
worked
dat
extstock
dav
counting
##300
circul
stanley
ude
##fan
himself
scott
cryptoh
##angers
boot
strongest
safely
increasingly
715
##orhees
##edad
guest
technician
pip
bitty
##reality
legacy
giftc
comprehensive
globalcoin
supposed
stands
tony
itunes
phen
bitp
spon
discusses
dime
retweets
memor
founders
title
lovers
##ifying
##works
named
##ails
marked
yy
udemy
nai
defense
audience
rhythm
##uu
twice
##kist
attend
coinnews
thin
tipping
840
dude
btcow
##115
joy
nuclear
##edean
##inbitcoin
fred
consensys
russell
trustless
artists
regardless
745
##sov
bchsv
contribution
saifedean
fauce
##oft
##meme
##very
claimed
##foot
fab
bye
keny
xrapid
shown
askcoin
209
##wink
##erry
##omics
financing
ocn
##stan
web3
geek
##chool
documentary
304
krw
##uver
181
weakness
attacked
searches
##nomial
howto
depth
liv
military
subscription
organic
ran
##aga
jamie
##technolog
##eb
11block
q3
##ancoin
##asic
##ilty
##izer
##readay
completing
412
##ento
askasto
##licious
rimbit
askastoreaday
gab
stole
rigs
propy
princip
askcoinnet
evidence
coldwallet
brooklyn
og
##oop
vertical
22000
deterministically
faucethub
icymi
lu
##crypt
phishing
tradingsignals
dividend
xd
##bg
delays
mixing
guild
##social
jus
req
##199
consolidating
##iler
599
cryptoe
incumb
278
bsc
alltimehigh
mim
268
polynomial
coverage
269
##112
rup
unc
algorithms
aoa
kucoincom
740
fs
vice
##terium
practice
cbs
295
pdt
##mel
safer
455
cm
208
inves
mainten
feeding
behavior
##kl
charac
martkist
ryan
470
217
yemen
##talks
speaks
candidate
272
slee
bp
289
gn
noise
2007
hungary
520
##icians
purs
paybear
criptomoneda
##pment
usdchf
ventures
pyramid
cryptonator
trick
privacycoin
boring
pill
minting
##655
nbc
##island
##center
solo
hollywood
staffing
pecul
wager
##mint
followfor
softcap
##hoo
##roject
alternatives
resource
##uman
##flip
jolly
zerocarbon
unlikely
banning
itcoin
213
##creator
flog
chile
leaves
affiliatemarketing
fascin
294
385
814
##ista
##lead
statistics
georg
##analy
##ali
fairness
saturdaymotivation
glo
webinar
distributedledger
btw
gt
##prus
171
21st
distribute
courtesy
##ao
telecom
bitcoincrash
independence
##expert
##rust
anal
mln
##couver
thebitcoin
8800
prosper
bethereum
ioaa
##states
ted
##anon
fatf
hospital
inch
835
intellig
titan
asics
loving
ethere
barcl
amzn
nouriel
greedy
maintenance
alcedo
neochain
terr
lion
##thern
377
11th
150000
scryptsy
dt
respond
dh
##dan
910
##hibit
eric
##girl
##tort
openscience
efficiency
##upport
ethbtc
brew
lawmakers
peerreview
recommended
nfts
tournament
##finan
##history
##gency
realized
##fare
dod
agi
eid
gates
seized
325
wast
downward
tweeting
relaunch
##nel
cell
bitfury
510
nol
##xbit
accelerate
bkk
remove
fest
##avin
##vn
flipp
flogmall
blame
killed
##itte
##sho
1130
##ea
266
eval
disappear
schedule
770
bitcointe
14th
picked
##dl
##atell
##tailor
txo
##edev
aj
cryptotraders
cyprus
digitalassetbuy
schedul
tariff
bittylicious
sort
##icate
##fire
##itech
##ggers
##payment
pushes
heavi
##mir
gmail
281
denies
screenshot
##eron
marsh
sexcoin
zy
bing
mam
##debate
##winklevoss
670
tree
corruption
##jour
##travel
ja
joh
george
##rating
sato
cryptol
stocktrading
seele
expon
334
finex
swell
franch
revol
860
ucl
harder
formation
6th
mystery
bitclub
failing
soundcloud
##private
haha
installed
8400
drk
parl
alloc
##ennis
emily
vancouver
blockchaing
futureof
##hard
##utable
##cept
bucks
mental
dw
exploring
nx
##too
##245
secretary
680
ale
gvt
##nor
ezt
cvc
gard
##brow
777
##tt
drivers
mater
shadow
##tests
collaps
##eon
actions
coinex
mistakes
##case
indahash
hardcap
ck
nin
##rx
bitcollar
completion
etern
sxp
blockchaintech
bounced
cryptogaming
rhythmtrader
##wox
amd
214
makers
iranian
cutting
wisely
bound
##hh
1040
sbi
remark
##teur
therefore
openledger
dumped
##technologies
##3x
buck
openbazaar
mt4
##tanding
apollon
opec
##manager
relief
litcoin
peterm
pinned
noticed
314
climbing
##ani
poke
virwox
onlinemoney
delivered
pum
378
priceanalysis
##ula
##endar
##ican
shark
##trezor
played
ftse
smaller
realtor
##arily
##league
regain
##buff
boxes
##holders
cac
complain
##itory
horse
lb
operate
implemented
smooth
define
claiming
improved
administrator
yacht
considers
announcing
filing
gary
soar
guilty
##vale
fincen
##bonus
816
technological
phenomen
nur
weird
associated
wrapped
355
pivot
payeer
hyb
nigerian
##gt
##version
nicely
##rader
##ived
##logical
xin
worthy
repe
programmer
##urys
lto
promocode
jew
##gies
hottest
##rillion
##eposit
usual
zealand
paradigm
dating
##ivers
netcurrencyindex
##edas
vacation
307
##tek
halvening
insidebitcoins
kur
navcoin
##dash
##pie
hole
ipad
1080
smell
jason
##gazette
digitalcurrencies
485
gamecredits
bjam
##lover
teaser
delivers
coint
##add
453
##244
##athan
peculium
tylerwinklevoss
960
ng
##forum
kard
rts
##merboy
bjammerboy
areas
ccc
##unit
minds
decrypt
petermc
##ctory
thrill
1010
section
411
##thy
inverse
petermccormack
##inn
287
8th
freeb
cashless
pace
backing
deserve
wont
##guy
concerned
dimon
pioneer
cryptocomp
kelly
tho
publickey
ghana
##oster
inspire
##nj
##pse
##inated
##this
primary
seam
merca
msft
knowing
merc
crypt0
##first
aapl
jess
515
bunch
choos
##ilbert
18th
kindly
560
recorded
containers
##tart
crashed
875
rab
##reit
422
bitcoinchase
unitedstates
functionality
struggles
verif
programs
pricing
delo
plant
##ifications
329
fluct
accused
##alt
##gem
204
7800
833
##jects
beast
##aceut
chaincreator
equities
504
##tok
reinv
mechanism
##cand
##icrypto
ster
490
doubles
azure
row
sea
banker
cypto
smile
digitalnote
##4follow
appl
looked
##223
associates
##ele
began
1016
##eps
educational
##pers
##fortun
d3
##tances
paywithlitecoin
925
egr
hood
##ined
bitfun
##yers
altcoinseason
192
fn
registering
##via
carefully
zerocarbonproject
jr
inven
betfurys
merrychristmas
dave
governor
kum
opinions
newark
1017
17000
managing
wear
##bler
pharmaceut
##agon
cycles
sends
aiming
worldcup
advisors
fourth
##stra
messenger
covered
gall
202
rolling
pand
cryptographic
262
374
collaboration
evil
politicians
499
7th
cuts
##acx
##homedad
lrusd
gym
monop
198
astr
norm
760
sepa
1150
filed
914
pompliano
protest
reserves
##boost
capitalism
hackathon
deeplearning
wti
##location
##iab
mars
mxm
##edo
424
xi
cypher
betfurysuccess
unfortun
topmost
citizen
bite
deloitte
##iring
graphics
metatrader
approxim
nsa
##year
hotwallet
cubs
c0n
dope
expects
8300
##franch
c0nvey
11500
gifts
cate
hut
cryptoca
bearrun
fatpig
mathem
pun
unm
277
btcevip
skynews
thousand
obviously
675
entries
population
versus
btcevipminings
bitcoininfo
follo
##cracy
immutable
requirements
sxc
##vic
309
3600
discovery
platinum
fatpigsignals
376
harmonyprotocol
825
xbteur
##wear
15000000
washingtonpost
collectible
extended
shutdown
617
pul
##ppers
celr
incumbants
yrs
##oon
##tour
274
fy
gochain
compat
plu
##apps
rental
918
logic
victims
bench
changelly
grande
hint
##iobitcoin
quadrig
eliminate
tracker
##tocash
somebody
429
##sahara
zcl
##iary
outsource
##die
##hr
shoot
follow4follow
335
##doubt
subsid
quadrigacx
mew
vips
##ecl
nowplaying
##insider
enterprises
##far
##enry
##ripple
890
affordable
299
ambitious
710
945
##corpor
bitsahara
profound
194
gbtc
xx
##vk
347
frega
joint
##kog
armstrong
##ialcurrency
premining
documents
##por
293
##quidity
sac
boasts
happiness
intelligent
ufc
placed
dealer
smallbusiness
nm
##giving
20th
421
snowden
435
ilove
digitalart
##finals
easing
suffering
shortly
tan
buytrezor
##bytes
publicly
forced
432
southkorea
279
parts
rasp
input
##rewards
endor
satell
##expo
drama
dx
kkog
##erved
##9999
##zer
congressman
snapshot
vulnerability
denta
b18
ylc
##114
423
womenin
##attack
##etia
gavin
##gent
##nw
coinexchange
profess
1120
stranger
359
profita
1014
##guru
35000
gob
##valley
empty
bitexen
crpt
##249
##ju
##clar
lucrative
landscape
##park
aval
fixedmatches
stimulus
525
reference
lambda
##won
##bell
competitors
tnt
ankr
379
veteran
##aff
##cexchange
er20
##zing
257
rolls
pomp
circulating
mirror
505
targeted
##wealth
296
expectations
cryptomonna
ohiobitcoin
##family
sick
ethcd
opt
614
##ened
tradehomedad
mania
dramatic
##anced
optimistic
##127
swingtrading
bitcoinpizza
crypterium
oly
seize
##195
hodium
scala
jumped
dp
259
mercatox
cet
bitbook
pornx
##248
colleg
mira
yob
1035
##ugal
turkish
xrpbtc
cryptocompare
##cb
211
dic
##pepe
##endra
darkness
enabling
##istol
dentacoin
dane
bitcointwitter
##uster
mindset
##turn
buyorders
stox
egretia
465
guru
##osh
crm
##train
h1
taxation
chelsea
373
##242
wednesdaythoughts
gto
securely
cmegroup
sweden
warrenbuff
##imit
##itexchange
eleven01
yf
moco
attraction
qrk
circulation
##politics
budd
273
futurenet
ftc
x1
assess
lt
mall
blind
implic
##wc19
fascinating
##video
officials
description
champion
mue
citadel
tay
##lated
##uno
changer
276
acting
8600
##mom
processor
##dot
##ouch
1018
digialcurrency
interoper
calendar
stealthcoin
mines
convention
artwork
fusion
##pill
sellorders
lessons
photooftheday
climbs
nico
206
bouncing
rg
lift
##118
9th
##cat
##orm
comparing
underlying
countdown
daneel
ppt
##yang
cnd
sleeping
##oto
cryptoupdates
203
hashing
enjoying
invited
freeze
unf
tokenizedfranch
cryptocahs
autonomous
centralization
headline
sirin
735
root
ledgerx
bobby
intrins
cook
12th
##airs
facilitate
shame
enthusi
council
addictive
##spot
gram
makerdao
935
##enetwork
signature
##thedip
##green
##qk
bestforex
easymoney
##bns
lvl
bitb
merkle
blackfriday
debut
saved
ou
##mph
##opay
191
pegged
grate
hq
stoploss
##hz
##iev
wells
lawyers
millionairemindset
priceless
accomp
speaker
tokenizedfranchising
hol
xmax
spare
vest
bw
##erium
produce
quietly
##nc
##inity
cybercoders
##uty
highlight
greenwich
affected
##mingham
##prom
deeper
##guard
##osen
consort
probability
architecture
284
vap
##yt
proves
1070
395
outperforming
dankmemes
ava
exposed
illust
##gov
followforfollow
db
tack
backend
283
gdx
##gue
1013
##2014
incentive
cum
##ott
trus
30th
hedgefunds
##east
##hop
197
##regulation
safu
manufactur
##points
ree
orch
nodeposit
##4bitcoin
bac
occurr
staying
smoke
##rpto
##ipay
visiting
ooobt
##celona
constell
tries
packages
territory
kings
##mood
myri
chick
develops
predicting
##ofthrones
zerohedge
eh
501
454
borsa
bitcoininvestment
fess
nzdusd
di
##eta
##113
mastering
##break
burning
corrupt
custodial
du
qe
##forward
indicates
rick
##225
##think
bristol
##117
wednesdaymotivation
sneak
70000
wisdom
thr
##prediction
917
tpay
stated
participation
ordered
sundaythoughts
woke
##needed
argument
financially
sla
calvin
##europe
redeem
cryptonatorcom
occupy
##trillion
bitcoinprivate
crook
constellation
bep2
belong
bitbns
philanth
scarce
resist
##liquidity
pierre
zb
verita
shoulders
booked
690
254
##ecas
operational
##valute
blocksaf
fortun
opposite
mah
ki
356
grabity
##hattan
dismiss
gamedev
##3d
##334
donaldtrump
##gems
hosted
565
##rex
thereal
##805
escape
cryptoinvesting
coop
functional
environm
ka
##tops
shock
mmj
##anche
pers
##lessly
myster
196
frequ
hurt
616
##337
symm
drawing
kobo
tradewar
##2f
ish
##ileaks
7400
ware
##term
continuing
##855
maxi
fulf
grade
258
robust
##gb
sait
##194
comeback
intrinsic
##oz
briefing
f4f
wu
x3
##vm
cla
ooobtcexchange
##197
##mask
bellplatform
970
##instein
consultan
outstanding
vulnerable
myriad
##fit
airdroph
##ifty
306
263
marks
figures
blocksafetech
ships
warned
##panic
##podcast
pb
##eted
euros
dealers
consortium
gent
zap
scand
fca
shell
##stable
dogecointo
attached
austria
variety
locations
hybse
##007
##ework
chk
##iman
##335
##yd
industry40
##ounce
heating
##financial
##give
##kra
selection
1034
protected
bein
consensus2019
vec
##forth
appeal
##wei
circuit
cart
##aid
fem
442
smartcity
cryptocrash
electrum
spiritual
rebrand
conserv
vergecoin
sunnyvale
tend
votes
##acts
estimate
ns
##gle
laur
193
369
323
designs
##pilot
champions
sb
usec
##clusion
chatcoin
traceability
##iament
assurance
consult
wikileaks
saiterm
eucxio
stakes
448
deval
retwit
kenya
heavily
lak
##long
clock
spotlight
thru
smm
sweep
940
koni
vod
##ags
disney
##ila
452
legendary
inject
perman
tradebitcoin
consultation
##urning
iconic
dirty
familiar
cyrpto
delhi
stance
kp
##gens
##338
vergefam
storing
konios
313
447
krakenfx
rsa
##zh
##reats
##fortable
johnson
whose
584
mnuchin
##vd
shadows
reduced
selloff
##uphor
9300
partnered
menapayio
nos
digi
##oph
9600
##nectcoin
ela
##radio
excl
sphere
bonusbit
holidays
b12
package
jimmys
neck
446
innovations
briefly
baz
##aan
##limited
comedy
297
##cred
575
hovers
ruling
character
emilynews
pharmaceutical
clam
digitalcash
wirex
bare
bump
cult
confused
maximmag
nerv
empr
tipster
construction
inversion
##share
criptovalute
540
1060
1140
788
mcap
##lar
##abs
connecting
grateful
doors
listings
contribu
csgo
approximately
ay
##corn
444
blocked
##iding
paradise
olymp
##ructions
##seum
252
434
typ
studio
dimension
jimmysong
alot
##ucoin
##wave
clothing
31st
crosscoin
g7
##ying
##itative
physically
delayed
wonderlandcoin
oxford
yt
##tank
##pel
##umn
##rocoin
1000000000
428
barrys
radar
proceed
7200
crys
786000
##sequ
sab
altcoingazette
unexp
916
gang
##bts
mobilepayments
slotocash
bitcoinbing
##god
##laundering
digibytecoin
##778
bars
catex
convinced
unconf
bountyprogram
previously
##wu
##enews
##onents
##qui
manhattan
ostk
bitcoinmemes
##reasure
##102
preview
gemax
fastcoin
##enced
guidelines
286
prince
barrysilbert
vend
amidst
itbit
##graphics
messages
dfs
308
brazilian
causing
##alid
##tcy
wishes
##john
21000000
elections
dup
thx
marketh
##martchain
piggy
cv
cwc19
16th
##store
##exchanges
##cards
soaring
368
##sterdam
ugly
hob
codes
ministry
satoshist
instructions
##resp
picking
vindax
comprom
rdn
##uits
askrate
sanfrancisco
binancesmartchain
##infl
beating
rewarding
actively
775
tmt
mountain
scores
##moneyteam
##135
completes
##trades
pumapay
wip
sov
##osting
##oyager
nbcnews
peo
100trillion
strike
veritaseum
##udes
##zone
unreg
addiction
earnmoneyonline
unexpected
##tered
##charge
mash
##eno
dag
interviews
mara
powers
anticipated
parliament
##punk
##ecy
interference
##enspan
incorpor
bankroll
listereum
boat
encourage
bitconnectcoin
restaurant
##mk
##dire
crew
kitco
markethive
dance
##akr
inviting
daytrade
##prin
academy
scheduled
hamp
refund
securitytokens
discussed
solidx
100trillionusd
liked
bankof
kickex
salesforce
exception
depends
buffet
2022
opera
humble
q4
##2013
545
##129
7300
pepecash
ks
goldenmoneyteam
##urch
teen
talked
organiz
ladies
somewhere
nq
##uro
demonstr
inn
afternoon
gamblingtwitter
nurse
##qf
webd
354
photos
bsov
kl
cryptode
aig
hook
pst
stamp
1115
312
entirely
explorer
cryptomanran
tge
iceland
lotto
##iva
mary
researcher
exemp
##246
##canada
##metals
bearmarket
253
phi
##blue
##boys
irish
powell
charlies
noobs
vehicle
619
chainalysis
barclay
euphor
polic
remind
##development
hes
tokenize
downs
316
bhfy
capitulation
tons
##339
humor
troll
##mented
forextrade
coinsp
swings
##656
437
plummet
roughly
##eful
##istri
loved
##128
##band
##qt
timd
##116
4500
##336
##658
geolocation
##mac
##ibles
illicit
icosale
##632
flexible
cointick
bullshit
426
jere
tid
18000
properties
sqlserver
uptime
hah
##asso
grat
b13
truck
scene
eurjpy
retailer
clarity
pride
##ups
suspend
decoded
1bitcoin
##243
##enna
ohio
hedpay
pursue
kus
lma
goldmans
assure
##tellect
##brs
satoshistreasure
hotels
trendingnow
bankruptcy
crystal
homeless
martin
bilibit
eobot
##richt
bthr
bdo
##cular
##bac
meat
hires
##b8g
##dec
neither
hyped
tariffs
##121
stellarorg
3100
unfortunately
mft
brasil
##dic
phones
brd
7700
implications
leaked
shape
622
##bq
##iller
bitcoinbillionaires
6800
bhfyp
cities
##wjf
##raper
golem
caut
venus
cryptocrunch
##brains
tsla
##using
helpful
dil
hx
webdesign
tied
sparrowexchange
verifiable
ji
##9ym
##erc
inher
besides
legitimate
goldmansachs
coinp
383
intention
unite
##phere
##exca
plug
yr
##bin
cow
returning
##qrxb
spreads
##vsdp
wine
leap
memo
##ib64
##kmvsdp
italian
yyexca
##b8gube
##wjfb8gube
##9ymib64
##qrxbkmvsdp
yyexcaqrxbkmvsdp
##9ymib64wjfb8gube
yyexcaqrxbkmvsdp9ymib64wjfb8gube
devere
burden
311
belg
cautious
managers
wag
##theday
404
diversification
objective
altcoinbuzz
william
amsterdam
322
craeful
eyeing
simulator
cryptobull
morph
silverway
improving
chan
cham
functions
ignis
rac
##hrem
fxtrading
prepares
leveraged
##zess
cfds
kinda
##cro
bitcoinusa
btcz
449
##652
charlieshrem
gmc
kash
vix
##enter
318
brokerage
##vault
##eter
##antly
craefulgang
anch
engage
337000
wash
slack
honor
concert
nut
##aled
17th
roch
reversed
writer
graduate
mood
##iana
retra
airbnb
harvest
controversial
dum
repo
1525
##eph
edm
405
##usko
fulfill
##pd
ali
chosen
weiss
##mined
rankings
issu
##lenet
bcnex
demands
372
searching
dick
##bricht
movers
##pression
requests
energis
##hour
##fd
cryptoclar
24th
358
55block
##fastmoney
bitcoincore
buythedip
showed
##cripts
practical
informed
sig
probit
potus
4ir
##anol
celebrating
1145
prev
##peer
strange
gameof
800cc
monopoly
##tcash
2025
##asses
13th
caution
salary
##garlinghouse
evolve
timdraper
##jab
384
##cient
##148
feds
incredibly
widely
##uge
theme
##ilton
##ubble
ftw
moneymaker
303
9200
panter
triggered
directory
elev
biotech
basketball
##kz
probe
clip
##tander
retweet4bitcoin
raj
legalize
yahoofinance
cryptocrunchapp
cryptoclarifications
##angel
1998
bron
tail
stoch
##hair
adopted
butterfly
professor
exists
confluence
hailing
nyt
##657
principal
mj
disaster
cnbcfastmoney
tach
##eces
brigh
blogger
river
xs
##aken
techno
intervention
282
##yourself
gg
nxs
unocoin
antique
1bitcoindice
rak
##grow
1250
386
##imble
payme
327
edoncoin
warrenbuffett
whal
##ibtc
throughput
dominate
collegegirls
mysterious
##onds
##eover
excite
benchmark
crown
functioning
##ltc
##isc
##rice
stead
protocols
joel
autopilot
##ajou
thehunt
inj
differences
division
chaos
##sec
271
367
344
youtub
riskmanagement
terra
gentle
hide
##isa
etherdelta
357
gigajou
6400
digitalgold
captain
screw
underway
snip
facility
25th
branch
ripplenet
hua
relatively
elearning
viewing
biom
bd
resc
438
selfdrop
##journal
##mend
chap
worldcrypto
326
awards
##esign
unpre
cata
##775
uas
##anson
businessman
booking
##ask
whil
btq
366
clay
thehuntison
##ancing
##agent
startjoin
phds
franc
diversified
980
uel
abu
##acrypto
##ysta
##quare
##acan
##ensday
##itar
352
##qq
doctor
weap
st1
attempts
grown
moto
farming
folding
vouch
##241
##hao
remittances
mun
##yb
##857
incentives
##volta
carn
##verty
##104
##122
bubbles
##aze
298
purse
institute
bitquark
990
##llz
window
bitnews
unob
extraord
andrewyang
hawknetwork
yumerium
sib
##dv
##quawk
assume
expo
328
589
metamask
admits
nt
##person
spacex
lady
302
324
delicious
paccoin
creek
realistic
##858
icoin
scary
brace
##investors
reputable
bleeding
nig
coinf
viable
458
##721
drag
##tec
moneylaundering
lopp
##bpay
##tanium
##998
cbdc
8700
corporations
niche
covers
475
bcpt
hammer
##pack
logos
plead
si
caps
sks8
##bol
##192
traderlifestyle
##604
charting
##vala
forkdelta
taps
tshirt
bitcointrader
##lolli
251
competitor
nons
##xic
lolli
fairly
golf
ptc
vill
conn
resol
##198
priority
##ulated
##deal
collective
whilst
##pen
measure
forexnews
##hous
##bage
commun
bru
##boc
613
##2d
##228
trylolli
##space
cio
317
omni
##words
##economist
birmingham
matic
##w8
##osis
til
##stit
desper
engagement
pushed
airport
letstalk
committed
nyancoin
wary
##666
residents
##bid
align
##eller
##friend
bulgar
forgotten
eight
##tu
transformation
lovely
##orses
protecting
##stein
##irium
ion
stages
##gal
##icated
##659
drone
matches
perl
chop
##keep
travala
economies
##monday
##pin
ank
canaan
##204
dmd
##region
israeli
600000
##ashian
2030
suff
dropgold
##voorhees
##gambling
718
bout
bitcoincasino
staker
##etip
##iglobal
##lest
##enal
amer
bolling
##indust
mobie
slp
##whel
##tortion
kusama
rif
##bri
mgti
pub
overcome
expose
ooi
##them
##etic
bullion
saturdaymorning
interoperability
##rod
407
msmes
cute
soph
##rm
deadline
removed
avalanche
aa
348
utilizing
ariz
unobtanium
##vas
physics
tennis
##viv
instar
await
policies
tick
uphold
##fintech
##105
effects
1055
##701
zebpay
administration
nug
rated
threats
##essions
detox
1230
321
scream
##every
tp1
##b0t
ivan
##mov
1037
crowdwisdom
zeos
incentiv
erikvoorhees
barrier
##ecasino
bter
bjp
pboc
emotions
##diff
cryptor
diagon
recognize
democratic
conversion
instruments
##page
tos
##331
balls
jewel
##rol
##ipedia
cityof
451
bour
ewallet
##gow
##cm
bitcointoken
ours
##ipper
332
loop
explosive
einstein
ves
##126
excel
cuban
monetize
##erving
stash
431
capitalist
louis
recognition
kor
concepts
surpassed
knock
warehouse
b4
kam
alto
585
healthtech
##followback
loaded
iv
364
9400
vox
democracy
725
kat
sequ
##icking
postp
bandw
odd
rom
##iscoming
##sty
hsbc
timing
##forecast
bash
midnight
temporary
theor
brothers
cryptok
theeconomist
premined
empire
suffered
upgrades
motivational
volun
explosion
cmt
##ongh
askbrains
nic
xmas
##502
glor
##rics
##folloback
cryptop
##ington
btcb0t
##332
comfortable
##995
drives
hbrs
##m3
##lets
cooper
launder
traction
349
nearing
promotions
labor
zcoin
##zabo
beef
8100
scratch
rcn
##uations
cryptofinance
##atures
backup
marco
jumping
securing
satoexchange
##inflation
philos
hunter
##zcoin
291
blk
576
pulled
##ijing
hempcoin
advocate
bible
pending
tale
##rar
##455
planb
cryptowallets
emails
kinds
threatens
electronics
surfing
huawei
arizona
dual
##help
##oda
intertops
##408
sharply
##bros
pleasure
nak
loading
##bos
deg
appoint
fren
441
342
427
explores
aragon
sheet
##craft
535
fad
s3
andy
gameofthrones
iotx
595
newbies
opirium
##ussy
gan
3200
burger
changetip
lmao
istan
##eline
moosep
387
397
criptomo
converted
restrictions
environmental
unpreced
moosepicks
##654
atlant
equi
melt
##arios
##station
fung
adopting
400000
##woman
##iti
##raded
336
7600
grs
strengthen
collegegirlsusa
##agree
402
##aha
##rug
speakers
believed
validation
ling
finwh
aggress
10400
cryptoearn
haw
digitalpayments
determine
cia
foods
##dings
longest
byteball
##ato
261
##izzaday
heights
workers
rochard
finwhalex
b7
obl
ford
timeline
giveme
cares
sticker
gameofcryptos
csw
##aki
manufacturing
unprecedented
bitregion
##manews
cashaa
phr
capitalizing
riding
kardia
##2k
themer
smartliquidity
406
espanol
streets
authentication
975
##606
sant
trash
##404
10800
lbry
tzero
digaf
436
extends
peaceful
gxchain
nine
cryptoweather
ord
##commod
watched
pleas
das
qanon
##mike
##ulate
unice
stex
capable
353
default
frees
presented
paymeinbitcoin
nuts
peru
whitecoin
##iblock
##196
##blew
informative
nhl
##icles
coinh
363
builds
appreciated
shadowscripts
bail
bitcoinvalue
##uded
##853
technologist
dying
rarepepe
rout
messi
credible
fifa
glas
##thefed
cu
sx
btcd
##202
##ished
poverty
sougo
##rise
18b
reflect
cinemanews
ambass
kardiachain
racing
##gos
retro
extraordinary
itc
##8x
patents
condition
youtuber
##4u
##isse
beijing
##tane
mobi
##774
keynote
##apper
darkweb
##ubo
motion
plugin
orchid
engineers
istanbul
mere
##agetrading
389
##ahe
587
onboard
1064
issuing
treasure
enthusiast
##bath
huobiglobal
guns
##cosystem
1044
hass
emb
suite
583
fxsignals
streams
inventor
qsp
blockfi
##2015
pai
southeast
sustainability
bitz
##alm
prob
barcelona
##sky
##byte
alb
##227
##tably
coinbene
##rr
##oming
valent
grants
putin
##gk
mercury
##ivet
gamers
gemcoin
queen
provenance
unicef
##145
applied
commentary
formula
catching
experiences
restrict
80000
qlc
sides
##eness
##unlimited
thanksgiving
telegraph
blockchannel
chose
zecash
aven
mate
##thur
##text
##201
safex
1039
##ables
quiz
409
sharingeconomy
combination
scrut
doctailor
jd
ulbricht
##hire
xrpnews
ample
joseph
sidechains
waking
##mach
hackernoon
adopters
legislation
bitkon
##ecure
wef
19th
##breach
smarter
agn
crimes
##prod
##226
808
##ref
dies
ito
cryptoinvestment
##onic
iconews
miningpool
teaching
frozen
rupee
##dial
bitcointrade
##144
discovers
painting
convince
##kinson
finances
apex
ice3x
bai
tradealert
pozess
655
bf
invalid
decades
diss
##etrix
##radar
##rtg
earnonline
augmented
pennant
simplest
##candals
jeremy
nix
rd
##event
301
##bean
##854
reminds
vipscandals
##bird
##based
##155
443
parall
matthew
##ront
employee
prosec
effectively
mimblew
##ami
439
fancy
follower
koinim
scandal
##ht
##hai
##caly
lob
intv
##mont
birth
vps
vlog
4000000
organized
##intend
infographics
##505
brk
##heart
deepsh
processes
##resen
gigajoule
##mets
capabilities
sportsbooks
commissioner
specifically
nim
nasa
emergency
schemes
bitkonan
qvolta
espana
##tuesday
##bini
##entos
aband
##feat
minded
shopify
##hodium
haters
compatible
yobitexchange
##order
seoul
sundaymotivation
leveragetrading
##205
9100
fractional
913
daytra
bullet
23rd
disagree
362
##856
kbc
##eers
translation
##191
arsenal
terrible
conquer
blasts
weddings
mufc
mth
##kok
##isch
bee
388
cheapest
##warewallet
heaven
mathemat
anne
opi
351
candlest
ces
2023
coinbasepro
altseason2021
covering
mimblewimble
ew
terminal
bgarlinghouse
##905
ohno
fueled
freelitecoin
##theworld
dailycoin
pulte
##zs
cryptomeme
beaxy
##809
machinecoin
##mic
cryptogame
##508
generator
treatment
revis
acquired
aggregate
roubini
717
##dles
##merch
apis
##147
##aky
stopping
eurgbp
bovada
381
taxi
grocer
organizations
mif
xom
##884
extend
stone
saas
##acad
portugal
confidential
disappoin
cryptocommunity
coinmet
##aman
workshop
ezysta
scenarios
conservative
5g
assetmanagement
bellcoin
##ecra
marius
patri
affili
lum
##chair
##asis
coinkit
derivative
##onne
##state
settles
safest
filecoin
aggressive
gbpjpy
swag
603
5500
aspects
gaps
unable
truechain
float
replacement
sober
massively
ohnocrypto
##pop
##mour
578
responds
cvt
##itrade
cryptodaily
##iced
peeps
tangle
##anim
overwhel
madness
pes
##yst
##cort
modi
localcoin
specialists
escal
kleiman
distributedledgertechnology
##lu
##nik
mempool
airdrophunters
##nodes
##isthefuture
simon
slate
##campaign
cadjpy
fzb
##xchange
eston
pieces
household
church
##305
579
operators
awaited
conclude
uasf
hmm
venue
material
daddy
oott
ghost
edin
interaction
637
spotted
1075
display
parity
bottomed
evolving
festival
##lan
proto
aside
entity
##672
biden
onlinecasino
quot
letstalkbitcoin
##irmed
##298
beneficial
residualbitcoin
eps
mens
##backs
9800
blackhistory
progressive
nitrogens
hilar
siri
##rat
cryptod
394
577
##weight
nitrogensports
intact
exchanging
##worthy
monetaryunit
angry
destroyed
surround
cake
gay
bitsler
fought
##igence
edward
franchise
ubs
##bly
##193
swarm
discussions
alongside
manipulate
opiria
proph
346
standing
btcfx
downturn
##948
greenmining
drgn
##guide
idax
##tood
databroker
creat
roy
##1000000
##vet
exhibit
trill
457
586
##772
richlist
xtra
refback
sparks
glasgow
xen
##jun
hover
recovered
advances
hnw
v1
##ebitcoin
1155
casa
##ancers
##208
brea
cres
merge
victory
occurred
ndy
##leb
thehuman
##million
##09
bitnation
bitlord
divis
belldex
deepsharding
bry
##wan
##lean
moac
declines
28th
408
v2
##hand
invention
##unders
blaming
faketoshi
##geek
##anted
smith
##peaker
reasonable
sleeves
cityoflondon
ian
vast
stun
generous
7900
felt
frenzy
713
f2
mul
invo
updating
technologynews
cryptocurrenc
unibet
ack
dinner
##lend
worries
thorchain
lull
ana
1025
agric
burs
mik
sng
coco
blogging
##usive
##some
directview
interviewed
dynamics
scoop
monaco
garbage
spectre
philanthropy
ezystayz
wp
##iments
blockstack
readers
nexty
consists
403
##bye
declining
t9
parents
##779
graphicdesign
jyw
wid
getpaid
delivering
strict
broadcast
##kins
coincap
coinpool
networkmarketing
learntotrade
343
shops
nflx
located
quarterly
jywakr
weaken
petition
##okung
bitpanda
russellokung
edinburgh
##edly
adity
456
execution
##pha
##icswap
edum
craze
valucorp
answered
##ulting
##enny
##ache
##entai
##viz
teles
hardwarewallet
##997
##609
endthefed
##229
campaigns
##engine
jerseycity
stephen
eag
##zu
altcoinsara
brown
money2020
##ughter
##187
carl
hampshire
##rh
cryptojack
##orgh
brock
landing
ubiq
ampleforth
nail
asse
transition
##mmy
##offs
hyperinflation
negot
vrc
##mur
##bury
##lden
pledge
appc
338
##mlm
rabbit
ioo
##issatoshi
minimal
cryptocraw
edumetrix
reck
breed
modex
correlated
##hoc
tps
##erk
latokens
swc
##tm
polish
xpander
barely
mull
##aldo
spreadtrading
atomicswap
wikipedia
7000000
hall
combines
excess
rb
reset
##109
pinkcoin
gor
##107
onlinemarketing
##cenews
elixiumcapital
units
1135
agenda
yields
fraudul
revenues
tuur
##blood
##pattern
subsidiary
vite
##6553
html5
stabilize
##meester
slid
irre
granted
hilarious
gcr
##summit
##vity
whoever
##flash
founded
northern
10200
convenience
##academy
##umble
##776
ignite
bingo
dotcom
kod
##mich
boe
ditch
stripe
dapscoin
exponential
pokemon
suffers
resil
339
publish0x
webdollar
##estim
##movement
coinone
enorm
##804
zpr
##utter
2048
1111
##158
396
##fraud
microstrategy
soulmusic
##west
##itan
##icide
##achel
628
jeffrey
motherboard
reducing
bun
erup
ultimately
lgbt
##keys
1820
##185
substant
ctk
lagos
##vrd
605
belief
##trends
recording
dun
bity
glass
##885
wishing
diamonds
plummets
satellite
##calypse
bod
bowl
cag
##zx
lyft
582
##678
516
networkdiff
371
##hu
intellect
btx
socialnetwork
intended
##uten
slides
emerge
##rest
##union
##eoil
##705
kicks
thehill
##eus
2024
bruce
module
collected
dependency
##kenews
gop
##doge
greek
wizkid
##iables
hentai
blockmint
##773
##xper
clone
##409
592
realestateinvesting
##ighter
##abe
neon
##lobe
altseason2020
##iwi
bnk
resign
trail
mask
climatechange
pages
##iat
bitcoinanalysis
usoil
checks
guitar
disclos
##tools
separate
nonsense
##gc
bitcoinnn
##iga
unbel
##kingdom
believer
csc
nftart
crosscoinco
##shore
regards
globalreit
lamborgh
confl
1920
##trace
casinocoin
aeon
wyoming
tulip
uncle
aces
crud
##405
##ridge
rg19
peoples
thehumanfaucet
ecl
##mil
##uite
##lose
editor
saturn
##ski
mcc
nxx
##ropolis
novel
recognized
instrumental
sovereignty
##ycoin
##boss
bitcointechnology
##807
identify
bitcoi
boliv
sensor
##peng
65000
passing
binarytrade
##worldnews
##zant
##dary
igaming
##edu
604
##143
mineebitcoin
coloring
agreed
dry
fle
##zar
liven
##next
eating
##sters
altcoinmagazine
currencytrading
##iestwitter
sugarbabiestwitter
tradingbots
accomplish
interior
29th
watford
qualified
624
##onom
##608
##001
##ewisdom
heist
##504
freebitcoins
warri
econ
sole
partnering
edgeless
##building
##diction
magical
obama
horser
##holder
pictures
accelerator
gib
h4
anno
##859
releasing
trainee
terrorism
cw
##996
consistent
roman
voted
##made
raoul
##satoshi
doesnt
##184
cease
##eting
bugs
digits
##878
streaker
protests
googlenews
follo4
##tography
desico
toko
b23
variables
wheel
skeptical
choosing
##artist
letting
quantitative
promised
enjoyed
dns
theblock
rh
instan
pulling
doomed
jax
cryptoland
businessinsider
activated
##homes
##strategies
testimony
##rz
##aro
##808
392
integrating
cryptomoney
enhan
##149
suggestions
interactive
horseracing
hij
##otic
##ucci
cartel
strategist
improvement
certific
chicken
513
##moil
traveling
bountyhunters
##2000000
bitcoinetf
1059
barry
crossing
716
rod
clue
##707
justs
executives
tfuel
stephan
tosdis
ichi
##ervice
##889
##cade
metrix
critics
honeyminer
jollycoin
fyi
pour
cod
leak
##ieber
relig
##mona
pepewisdom
whitelisting
bow
##udo
stakepool
rallied
measures
##itt
##igan
anchor
##ques
compens
##674
bom
##lots
blocknet
##651
nonprofit
permissionless
##bars
tact
bitexglobal
enormous
##alo
chz
19000
flows
##arius
determined
naira
609
##nyc
turmoil
filling
bloodbath
mediconnectuk
adventure
glorious
xtd
##1s
22nd
##803
synd
##896
pacific
impeachment
aer
##camp
##isters
##quake
##protest
marke
##call
##univers
raff
##605
##638
fools
execute
##11111111
dial
##etty
1023
gulden
cloudbet
jackpots
##tario
##rie
mellow
crypro
entities
coincidence
dca
##mus
##dig
##fu
##843
##investments
hellob
kaz
##inet
moments
quar
protein
miracle
zycrypto
ecom
rake
rests
##ether
colleglife
xerate
perlin
regulating
##active
housing
sundaymorning
##aron
spinner
accountforsale
##viewing
##844
mentions
rumor
utilize
ddos
principles
xeratech
pchain
##llv
newyorkcity
tremend
binanc
dcs
oce
##mies
candy
leeds
bulvrd
manufacturer
crudeoil
cryptocurrencytrading
##bitz
459
barg
interests
clauses
unbeliev
virtualreality
surveys
appeared
kios
miz
##arma
9700
##955
##634
publishes
processed
15256553
gaw
sellingaccount
narendra
##football
fraudulent
##dale
##accept
##bots
navig
believers
suspended
##iaries
##browser
unconfirmed
kud
lex
tronbet
fakenews
##402
rah
recovering
pynktank
masters
##ombie
##peles
pk
##ota
##4cx
bitrace
trave
focusing
##held
sloven
bitcoinunlimited
emerald
mant
##2c
thel
##307
classes
##mentor
indonesian
persist
blackhistorymonth
##gks
##rus
##gey
shard
26th
handpay
baseball
snapchat
prosperity
finexbox
steadily
nkn
##ores
grabs
##897
redditbtc
kmph
##mw
confer
gravi
pulls
correcting
bist100
sngls
ped
##ntoken
##white
cyberattack
zillatoken
##williams
kappi
pj
##f4
##olina
##season
##idi8
mifidi8
##udio
##erock
decryp
purple
mixer
arawtoken
ordinary
untrace
mondaymood
##wala
rhoc
##sel
##iu
##unions
coinom
spoil
inflow
bravo
##onesia
##listing
urges
troy
aigopay
hijack
fand
##7zy
arthur
databreach
purpos
collectibles
died
hike
nifty
##jen
socialism
lifel
label
footprint
profitability
telesales
bloody
##anke
avalon
athlet
definition
mk
xcel
shorted
generating
30000000
telos
compares
gbpaud
##994
##852
merchand
streak
kyle
tls
##fia
skyllz
databrokerdao
miller
proposals
jin
##fw
##inel
##ayre
##adena
shrem
jamal
spoke
psa
##hc
##ontech
##909
##ggs
generally
vsys
reliability
salv
##bf39
##m3ed
##food
##asa
623
gods
craigissatoshi
##fficient
implementing
##thwk
inb
blockgks
393
favorable
##puw8
celebrities
##wkm3ed
##knpuw8
##hzthwk
##bqknpuw8
pantera
nxx4cx
##bf39hzthwk
##wkm3edbqknpuw8
nxx4cxwkm3edbqknpuw8
##bf39hzthwk7zy
nxx4cxwkm3edbqknpuw8bf39hzthwk7zy
##gif
accouncing
foreignexchange
horizontal
untraceable
##fic
##esi
##886
robbreports
switching
tronix
##uda
madbitcoins
##ennz
##privacy
hellobity
bitw
globalboost
##bee
signaling
##hopper
b11
##sy
ontario
reign
steel
britain
##fiat
blessed
pinkmona
unibright
category
kany
senator
gigeconomy
democrat
coinzoom
henry
##reach
wechat
##103
607
realestateagent
skeptic
##279
518
hind
##hen
xrpthe
##992
complicated
##649
mrnj
tow
marc
##957
##644
##brandt
lamborghini
##usx
##agu
594
frag
yam
##bio
saylor
europa
biometric
shang
398
outperformed
sellbitcoin
45000
aimed
karma
jui
eve
##child
financex
##frames
practices
consistently
##206
mycro
##fresh
historically
foster
##iak
businessnews
sinful
4742
returned
strikes
improvements
diy
btco
ledgern
##umbai
125000
laymen
testimon
##411
855
forked
coloss
bangkok
plz
##aii
philosop
cryptocrawllv
nathan
##cep
##aya
bot11
edtech
corda
vethor
brok
coinmarketwars
producer
construct
purposes
lbc
newton
actor
flights
psychology
excitement
prototy
##chip
##advice
dogs
##157
wes
bitcoincom
##feit
##703
##177
squaw
##pesa
mvp
##basic
574
##lat
##una
27th
bitmexdotcom
601
vidt
##379
smartcities
accid
uploaded
##pocket
produced
##torium
bangal
##mons
##05
##umining
litecoins
##106
lyk
survival
declared
giftcards
cennz
##salon
digitalwallet
offshore
##108
##602
hanging
##bus
##toon
cryptopay
cryptohopper
longterm
653
tuesdaymorning
certified
cats
dal
pad
zenc
##entia
##entix
neos
applies
cru
8900
##haust
rallying
luk
wpr
yep
##mond
##bow
adtech
skilled
reinvented
cryptomonnaie
##theo
conclusive
##883
silent
cable
##zed
##encer
hearings
freelancers
dab
dpos
bitforex
blockchainisthefuture
cashing
digitalcoin
trojan
alexander
changpeng
aditya
ame
gol
mayer
defied
makemoneyhome
letters
dk
mouth
##pac
##onaut
onlinebusiness
remained
120000
wanting
moonshot
sandbox
##ecryptopanic
idiots
acknow
611
bath
cofinex
andi
melo
didnt
snm
dol
tbt
embed
acquain
images
rockets
goldcoinjar
numeraire
finger
ilcoin
rx
yv
##amas
shou
upgraded
hidecryptopanic
obsol
counts
mintingcoins
morpheus
exhaust
##355
continuous
##cobb
ampl
triwer
##prote
##blocks
happymlm
wedding
essentially
skyrockets
psychological
happymlm111
timeframes
unity
smh
##802
endless
##athome
freelancer
##iye
collaborate
utx
##kings
toxic
555
##tweets
629
multiplier
cooling
strive
##industry
##bench
assist
solver
properly
hosts
gy
##tard
##873
collecting
remarkable
##gates
##toff
bithound
tnb
adjusted
##gian
##security
trinity
cbsnews
572
593
##rington
hurdles
waters
superiorcoin
##plo
##asan
##303
##607
597
slams
richest
walking
county
taylor
rescue
nike
nintend
##proof
writes
175000
ecoinnetwork
bitfunfaucet
jewelry
##tj
thie
invites
btt
transport
bottle
##407
centralbank
momentumtoken
gdp
##yk
##ce4
blocking
##cafe
##709
573
##hits
youth
trademark
spectrum
squawkc
tec
uah
ubi
##fil
##part
doct
##cryptonews
##304
##904
cryptoslate
carri
arcblock
cooperation
squawkcnbc
bean
propose
pars
fishcoin
fifth
euphoria
rail
##luck
##tonis
sheep
karatbars
tasty
##aseico
##nell
##698
criptomonedaseico
lor
tbc
##pfx
cryptoexchanges
agri
##903
##claimed
##3us
##jj
bitcoinguru
1139
regional
##ensored
desire
391
##954
optimism
##factory
ait
nb
onel
realise
coinspeaker
##neum
understood
depending
urgent
verasitytech
##personal
aut
debu
1220
##301
fran
##zzy
essentia
##etrical
##pread
betbitcoin
##178
joes
divi
guarium
ping
timebox
betcoin
achievement
ambassador
pulse
##qs
##orus
thefuture
coinmetal
earncrypto
20190
deflex
598
borders
thursdaymorning
facilities
mcdon
adam3us
tube
spa
##imon
##704
##eshare
degree
tic
lean
##andex
tracks
technically
##697
indicate
swapzillaco
lined
phb
portion
##496
ausp
665
looms
arrive
declares
garden
bollinger
exclusively
factory
impressed
boolean
trapmusic
##republic
lake
s1
##136
666
numerous
permanent
issuance
dji
##4dt
##rance
thug
todd
finland
pairing
celebrity
damage
pundixlabs
##try
##ecoin
##ropri
marcus
mature
##making
maticnetwork
##gm
bitpoint
coinstar
##essen
##308
classy
608
param
constit
lights
bitcoinews
nocoin
robbed
##708
##459
marky
giftcard
btrs
##603
nashsocial
nobel
licenses
elixiumcrypto
bundle
satisfiability
xrpthebase
##vv
coincompany
1134
##ageof
##demeester
##indonesia
tagz
independantly
##casts
iqcash
cfx
male
sap
voyager
##rotocol
everytime
##183
nicehash
curate
##386
##rates
##billion
paycoin
transfercoin
tuurdemeester
bands
ebitcoin
bitbay
theat
eris
##669
bitcoinpizzaday
nw
##kei
hypo
##sports
##947
##673
dish
fights
##water
bitxbit
sup
##alestate
##153
602
##755
farms
certification
mouse
depression
btca
##guys
allocation
scrutiny
##afe
##rts
##kan
##179
responsibility
##farming
##qfz
upp
##wick
##tho
feet
##706
##146
sugarbabylife
auspicious
zur
##wart
##amu
contemp
##undo
signatures
disrupting
baba
##kum
karpeles
rur
s5
##ima
##itate
##tainable
##bourg
gdpr
unbelievable
##pier
plain
loveisland
audjpy
zencash
ufo
zer
##isp
3333
relay
noticias
bitcoinmillionaire
annealing
lykke
qubo
##qa
tie
metan
28000
569
##whale
norway
measured
reform
##odl
topcoin
##902
##887
engaged
478
capitaltechnologies
639
##nxmb
trustworthy
managedforex
brutal
intellectual
lnk
tender
xlf
incub
shocking
destination
##tives
##4n
##yp
weare
adiab
overse
596
469
amongst
universalbasic
jaco
##qk8
universalbasicincome
##gets
consequ
underestim
##879
excellion
suspect
vinny
btcspinnerio
adiabatic
cze
dubl
##mare
##dor
##253
cloudcomputing
##137
##221
nbafinals
animated
##khsh
averaging
cul
eager
wol
##virt
##alsh
uptown
assum
recommendations
tp2
ds
acnz
bigmoney
644
luxem
handcash
##xttp
empow
studying
##pcpfx
attempting
##wpqk8
##8x4dt
philosophy
##ce4nxmb
##qfzwpqk8
acnzqfzwpqk8
##xttpce4nxmb
##pcpfxxttpce4nxmb
acnzqfzwpqk8pcpfxxttpce4nxmb
acnzqfzwpqk8pcpfxxttpce4nxmb8x4dt
rviv
##ancy
asx
williams
##668
corrections
propag
jihan
##houses
##khshtein
bg
dates
##tak
slips
##272
promotional
nugl
capitaltechnologiesresearch
plot
xbx
##igible
477
wasting
##personaldata
cav
##iob
##tands
##848
pandemic
endorse
brokageof
1x
eot
comfort
breath
huracan
brokageofpersonaldata
##nig
##207
payza
moderate
##352
minergate
633
##sro
657
##647
##chee
##tdown
10300
beng
##zik
##cere
##tability
greatly
##849
gamestop
looming
teacher
speculators
zak
bitturk
businessown
##168
cameron
skype
draws
##pairs
belgium
criptomoedas
##set
dell
heck
supporter
viop
xrpmr
##apy
sty
teamb
nascar
reffer
swedish
cced
gil
##qy
##leep
projected
taught
freedo
464
aspect
612
##tsh
##753
kicking
bulk
animation
phenomenal
trillicorn
shanghai
auss
jac
nowhere
somehow
trials
thenex
maxsignals
touches
altcoinbuzzio
##enow
alarm
##636
davos
ichimo
ccedk
##rne
elibra
##sport
##898
##mnts
decoup
cryptojacking
gad
yandex
##tube
exceeds
socialmediamarketing
##course
nikkei
markyusko
##dia
##hd
##josep
##righ
22222
##psy
##309
##iamond
nova
peterl
citing
##wx
stacy
btcto
##503
referred
resolution
clever
##771
halo
frames
zones
coinprices
grey
julian
##writing
ivanontech
yvonne
banner
kiss
##wanted
##lark
grew
aii
nets
##jd
##inal
##thechair
fundamentally
explodes
lobby
bitcoinfaucet
agents
##176
##172
charging
ninja
tea
joker
##667
##662
##aheim
nfc
uob
##nin
##arde
preserving
##breaking
anx
stalls
followba
eli
##457
relations
languages
nwo
##a1
##mf
##cend
##cars
rely
##993
##258
##882
ethereium
silly
wides
##2255
##bec
cryptoco
##rike
##134
inclusion
breaches
paste
stakepoolcom
dxchain
steals
341
##238
futurist
##elling
exploit
cryptoeasy
georgia
peterlbrandt
##ldc
flipping
christian
concertvr
lith
mav
ora
##3r
cryptomo
##isking
blok
alipay
newcom
wealthmanagement
shoes
frontier
bbna
juris
cancel
chapter
luxembourg
anaheim
impulse
654
buddy
fesschain
obsolete
bitcoinlitecoin
dogearmy
##259
tamsro
benjam
doubleok
bulgaria
##vx
##fix
eth2
payroll
boris
flippening
ace
bense
c50
pdf
alco
algot
presence
##874
combining
appreciation
ctn
eoy
##anetwork
topped
fever
##neth
##communic
##851
jackson
prints
recommendation
wireless
bailo
##viction
ethers
cyn
##254
##funds
briand
expertise
removes
controversy
memorial
abuse
##ression
##297
listened
revolut
##b1
alright
mintcoin
4200
respective
influential
scientific
uma
##bitex
thai
whatis
##507
congressional
10700
ledu
embracing
deeponionx
bargain
jet
##tg
##vard
##erome
santander
solana
banano
sterling
##zk
##inct
##onent
alan
bypass
photosh
sentenced
##696
##382
allegations
experiencing
mw
pab
##mchee
##tam
coal
dec19
bountycampaign
##189
combat
##fishing
dimecoin
bbnajia
zh
##taking
##queen
tokif
626
##949
dyn
noluck
hassle
bensemchee
cuz
pse
##must
ethereumproject
whist
agencies
##166
##counter
##ckoff
tek
frust
blogspot
celebration
ilovebitcoin
tremendous
melody
##router
rem
reload
sentence
apocalypse
##contin
##purpose
topcoinprices
jill
investin
##areback
##lave
blowing
slovenia
czech
bou
wage
overtake
eliz
##auts
distra
sns
urbitcoin
combine
##nzd
hoskinson
##225566
noluckneeded
##ravel
spre
cryptoglobe
hurdle
hungry
marius225566
hud
tiger
##ewith
sectors
vira
silence
##846
celebrates
astro
rebounds
dictator
urbitcoinwear
##ology
##kal
creditcard
##944
behindthechair
dodge
lind
neigh
goodbye
##251
##664
##haven
ps4
educated
plustoken
resourcing
echo
euno
##zl
##retail
quantumcomputing
earthquake
boxmining
cinematography
calvinayre
fanduel
sony
zig
##oids
twist
erc721
malicious
coingeek
decryptmedia
ebtc
tru
volentix
median
talented
iphone11
feliz
crpto
sessions
##pm
tik
##itas
octacoin
##637
norwe
challen
roof
symmetrical
aqu
##conference
##azz
consume
##847
##accepted
ichimoku
6000000
kay
##rency
##but
##203
myth
606
mysql
agrees
rakuten
##ardashian
##atement
##mai
##tron
803
##278
astrntoken
comex
bored
grayscaleinvest
coordinated
##internet
cenz
vlad
##vj
##klenews
##androll
##avor
unitedkingdom
p2po
##702
ecostart
samson
bbcnews
bbnaij
advancement
noob
##counts
a3
fade
yank
chand
drain
themerklenews
##ecraft
511
##tories
##806
representatives
arms
blz
##169
##iki
636
##276
prospect
##people
suck
2400
gainer
##283
rockandroll
route
jurisdiction
oxt
zd
##aus
##154
merger
##138
495
relapse
528
walls
##679
btse
matching
tm
##hain
acts
reporter
cannabiscoin
rr
##imer
manual
participated
activate
treatement
ahr
raffle
conferences
thieves
duck
iin
uptr
vapor
fate
##2000
##aris
cole
exchanger
thankyou
creed
##306
##174
msnbc
understands
publication
denmark
surrounding
zip
extortion
newspaper
##274
##891
##movie
##a0
##acle
##257
##series
##monitor
investigating
transactpurpose
manipulating
challenging
transactpurposefully
outcome
##planning
ripplexrp
##906
737
##872
narrow
nicks
cryptoico
altcoinarmy
moneyhealth
clash
##406
economists
icons
googleplay
##648
peso
tensions
##fst
extern
##509
566
operated
downloading
vintage
unusual
lp
##yx
ors
##rown
##tang
##142
elements
animal
johnk
coinomia
xst
##nie
reim
enemy
12500
##ofinance
repair
staybad
beincrypto
reap
payday
503
479
6600
##234
ioox
joesquawk
##equ
##vor
bitcoinart
instars
621
##286
##arenot
examples
primecoin
ronpaul
leveraging
gpumining
##expl
##links
legally
##236
treos
venmo
solidity
wyckoff
newbie
##promot
gm
tern
uh
##realestate
mycrypto
##907
analyzing
moneyhealthfinance
fnp
um
vot
##libra
##istory
suisse
lying
evx
vegan
lighting
pillar
prosecu
mda
xdn
##dar
##dfs
##alk
whoa
581
##139
attending
fargo
hence
poo
icobench
ranks
##188
intens
##639
##942
presenting
parallel
0doubt
exerc
myths
coinspot
##501
##cedes
argue
austrian
##analyst
##enas
##ifex
##ideas
502
331
##173
histogram
hovering
widespread
##hab
##ckey
notable
strongh
offices
mercy
rariblecom
bulvrdapp
dba
proving
ioe
##403
##159
openings
643
mineon
##362
meltdown
modernsalon
tourism
terrorist
lindacoin
castle
gno
wi
yup
##channel
ende
moneygang
programme
optimal
gnosis
interiordesign
##that
rejects
largely
tlry
metanet
yay
bitcoinindia
coincon
abele
serves
hardest
##908
652
mainly
iqoption
lfc
##thursday
tees
shy
yieldfarming
hotbit
##293
##373
kobocoin
dare
##scott
lazy
carter
starwars
brick
localdata
divided
egt
replaced
temporarily
##riend
btcchina
payera
resh
##693
##686
##682
##yota
wasted
jb
##db
##reon
##ustainable
refresh
##unce
accommod
noc
##506
antrouter
##757
algotrading
nisch
##las
bitexlive
cryptodailyuk
erisx
tb
##oooo
##209
videogames
##281
##rupt
bottomfishing
murder
##elle
##cnn
capture
dpw
ans
isis
context
553
##132
clearing
10600
randomly
bigmoneymike
xag
##estal
plc
##uding
goodmusic
##356
##759
##876
akropolis
stagn
gallery
mueller
##mate
cryptocurrencymining
format
##448
nightmare
auroracoin
averages
continuously
##virtual
alcohol
##gro
##icity
632
apolog
##igeria
farmers
juice
declined
##analytics
bigmoneymike6
airdropalerts
transpor
bitcoinminingcontract
##ika
gridcoin
ib
mumbai
##rush
##coaster
cracking
##282
##burns
##jy
##altcoin
##uscoin
millionth
costa
##141
centralbanks
strip
initiatives
sensordata
dublin
fid
##cool
botnet
altsareback
secondary
##683
cfn
arawpay
gearing
craw
sas
##prop
##imal
##ippany
##caps
##162
##thersday
torrance
andreessen
painful
flexibility
##istrict
##kd
advertisement
raspberry
zurich
payback
##books
productivity
0x
marty
cryptocr
##ayan
##abeth
##401
cafe
##164
customized
##749
flour
gsx
gathering
xtrabytes
bps
##changer
mayor
satoshif
564
template
fldc
khan
##252
568
rockmusic
rage
therock
cot
coss
chasing
##assol
##boarding
634
##943
yolo
barriers
qiwi
thecoin
##ecut
sued
moneytoken
567
ive
v4
xxx
amc
tripl
donating
les
##ocapital
pahoo
larry
felix
##gur
reduction
##239
norwegian
jwilliams
##wil
islam
ofx
refcode
harvard
clinical
agrichain
##fstmed
##iber
##marketcap
mooncoin
##676
thecryptolark
violent
candidates
illustration
kashmir
jwilliamsfstmed
wider
##yson
##iveness
prank
imho
##663
##555
calculated
bitkongme
##sin
thunder
cointip
tradingstrategies
gotten
##354
ows
robinhoodapp
gradually
emc2
ckm
retain
getbitcoin
charities
##456
##958
##231
internetmarketing
estonia
teambillionaire
##fits
##xl
blockchainc
doj
spik
627
##953
spell
pymnts
statements
santiment
nischalsh
bree
naked
##mu
##rpvg
##iao
473
##378
limassol
nischalshetty
gir
null
tower
##vex
##ships
tophits
crypta
##842
lockdown
bitwage
aaron
##instant
patreon
##273
magicmusic
unregulated
sake
##ww
kev
cccx
consultants
intermed
transac
508
pointing
educare
suspected
flawed
compromised
memory
lnkd
foo
##obtc
blend
##454
airbitz
##herbert
custodian
8000000
ciph
pussy
riv
wic
##mant
##olo
##rand
##igil
1079
##david
659
advcash
copies
s17
##chains
##obank
##ivision
makemoneyfromhome
##262
loud
woes
##a9
##lects
conclusion
nevada
disclose
##444
oliver
vaultmex
##doo
faced
decides
##302
securitytoken
##transaction
sync
vdx
buylocal
lived
##torm
makebitcoins
audcad
crying
trolls
ezscott
##trip
cypherpunk
nickszabo
##central
datal
realtime
##152
##754
##952
sino
vays
##lb
##ceo
##ppin
manner
carried
closure
credibility
dorian
desperate
debuts
cpe
##jin
##tah
cryptorevolution
clinton
##etapp
pf
recharge
##eca
airdropf
bln
tricks
##601
##163
anonymously
celsiusnetwork
cait
godaddy
devcon
superbowl
merchandise
ix
##wed
fires
361
sharpay
563
##296
choices
renewables
maintaining
restart
cyrptocurrency
##vew
##ayes
mover
marketsnews
642
brewing
cfo
rmb
##james
inver
cock
proport
appstore
iocoin
emotional
911
nca
##gd
##stocks
##icap
##quest
##901
trump2020
publicity
discip
circum
atomars
tgt
rollercoaster
marshal
buckle
cointiply
##yes
##chained
concent
##corner
##692
##396
drawn
##mingly
involving
ezbitex
kenneth
europol
external
hills
##oomai
venturebeat
##uppor
coinzoomai
transportation
wearenot
mole
contentos
brokers
confisc
richer
##airdrops
##appy
##poe
##956
##232
7100
airswap
tgif
fm
jerry
nasty
golocal
cybersec
proposition
observ
sbtc
bitwala
##igre
manif
##society
loser
correctly
phenomenon
512
jib
kwh
##sc
##b4
##ilet
##tyle
swan
##292
browsing
criptocurrency
mgm
album
##altime
coink
1159
2800
huff
3800
20000000
adapt
